/**
  ******************************************************************************
  * @file    network_data_params.c
  * @author  AST Embedded Analytics Research Platform
  * @date    Sat Jun 15 23:21:45 2024
  * @brief   AI Tool Automatic Code Generator for Embedded NN computing
  ******************************************************************************
  * Copyright (c) 2024 STMicroelectronics.
  * All rights reserved.
  *
  * This software is licensed under terms that can be found in the LICENSE file
  * in the root directory of this software component.
  * If no LICENSE file comes with this software, it is provided AS-IS.
  ******************************************************************************
  */

#include "network_data_params.h"


/**  Activations Section  ****************************************************/
ai_handle g_network_activations_table[1 + 2] = {
  AI_HANDLE_PTR(AI_MAGIC_MARKER),
  AI_HANDLE_PTR(NULL),
  AI_HANDLE_PTR(AI_MAGIC_MARKER),
};




/**  Weights Section  ********************************************************/
AI_ALIGNED(32)
const ai_u64 s_network_weights_array_u64[15208] = {
  0xbcb63e203d826d5cU, 0x3de2d8a03dbd3cf0U, 0xbddee0eebdd891c2U, 0xbe07d5aebdb1edf2U,
  0xbe176cc33db71600U, 0xbde64e263da3bcbcU, 0x3d99a632bd86e108U, 0xbd6895483dca4974U,
  0xbd4e824c3d827b54U, 0xbe21dd47bdc90f75U, 0x3cb40510be016933U, 0x3df86cac3e1f52beU,
  0x3d1ddfb4bd9b0e36U, 0xbd87e3c13bec1cc0U, 0x3dc977183e22de44U, 0x3da72d183dc198f0U,
  0xbda8fc6cbda3fa28U, 0x3de232d83e0c8808U, 0x3dde1370be0274c1U, 0x3d2ac75c3e0faa84U,
  0xbd18dc20be030be1U, 0xbdb93b9ebe00aedeU, 0xbe09cdeebe287786U, 0x3dce17c0bccf4ff8U,
  0xbe254045bd8b3371U, 0xbb8aa8e03b2749c0U, 0x3c19a8b0bdcc0c47U, 0x3d88d080be0385eeU,
  0xbe1add98bdc0b676U, 0xbdb659143e203640U, 0xbc03df003b76b780U, 0xbe0d38c0be2cdb66U,
  0xbde01ae33d6125f4U, 0xbdc52e36bd42405eU, 0x3daedcdcbc87a2d0U, 0x3e06132abd1adaccU,
  0x3e1eebd03dcb4844U, 0xbcf4d4d03de840ecU, 0xbcd099d83de447d0U, 0x3e0fd0483dff2874U,
  0x3ce22988bbaf8880U, 0x3d9f676e3dbd31bcU, 0xbd9c11edbc9afde0U, 0x3dc275983dfb31f8U,
  0xbdb324d63c0e2ab0U, 0xbd350942be0d9481U, 0x3dfa30b0bdb19b09U, 0xbdafd24bbe23afb0U,
  0x3ddd72603c580830U, 0x3d8f2680bdeef5deU, 0xbd90e596bdd7a8dbU, 0x3d547dc43cc12148U,
  0x3da5af8cbe1472f9U, 0xbd96b9c5bdf36da8U, 0x3d93a854bd02aae8U, 0xbd83eedbbe049696U,
  0x3d94e61abd2b31fcU, 0xbd86d0773e057f20U, 0xbdb14e77bdc8c407U, 0xbe0dc5c4be09908dU,
  0x3d8445d8bde678a4U, 0xbc917640be036f3aU, 0xbe006b54bb323780U, 0x3c270840bcb0ab80U,
  0x3ddf28c4be28b8feU, 0xbde5d0aabc841160U, 0x3e0665bcbe0c2b66U, 0xbd433e8c3d94a754U,
  0x3e06bea0bdefc38fU, 0x3db810583e1bbc28U, 0xbce67310bdc5e9dbU, 0xbcf854c0bd98912dU,
  0xbc878c80be2a28baU, 0x3d825536be2cbbddU, 0xbd902354bd0ea760U, 0x3e11a2403d211bf4U,
  0xbe2c39d93db108f0U, 0xbe018377be051c5bU, 0xbe24e214bcb22190U, 0xbd8d08813d936244U,
  0xbd93e4bcbd138904U, 0x3e05dcacbda5f089U, 0xbdb5da18bccda6b0U, 0x3d627af83e242fa8U,
  0xbd756036bd19bb74U, 0x3d876fd63d73fee4U, 0xbd1f5e8c3d13fc08U, 0x3e0602763dd89ad8U,
  0x3d17956cbe0364aaU, 0x3c6868803e1a878aU, 0x3d4c1ec83dfa4c78U, 0x3d88cde2be18af08U,
  0xbe1bf0683db800a0U, 0x3cda78283df1dc90U, 0xbddae0dcbd1efd94U, 0xbe14a1b8bdcb53adU,
  0xbe2726bbbd93c67fU, 0x3e16b2f43dc523bcU, 0x3df8673c3d25ca20U, 0x3db061583e1efc9cU,
  0x3e18fbbabbce5a80U, 0x3ceec1d0be208495U, 0x3d181ca83dc97898U, 0xbddaaa64bdc2effeU,
  0xbe21f4e43d9a0920U, 0x3db384ac3dd327dcU, 0x3d61991cbe167d2cU, 0x3a95d3003e0f2d1eU,
  0xbdfbb036bdcfe64cU, 0x3d3d5910bddbabe3U, 0xbdd8222dbd1a5f08U, 0x3a198600bd556d46U,
  0xbd827b8f3dfb3e68U, 0x3c4b78103dcd9b84U, 0xbe0753e3bc2daa00U, 0x3d2bc5283dac76fcU,
  0x3e08893cbe166055U, 0x3e127736bd7b4982U, 0xbd9d3458bcf2ece8U, 0x3de7d2e8bdc297bcU,
  0x3cc038b0bdee57feU, 0xbe0bfe90bd830c30U, 0xbe0575743d9c77b4U, 0x3de359e83e0200eeU,
  0x3c420790be1b7290U, 0x3de715bcbe2be9d0U, 0x3d3d30683c04f3b0U, 0xbe19a257bd704182U,
  0x3db69ffc3dc29e48U, 0xbe06a868be03dac6U, 0x3c2f4f10be2545a5U, 0xbe022ba63d37aad8U,
  0x3dc6d1f8bdd7ba1eU, 0x3c8632b0be0cd40dU, 0x3d563b3c3d9f5324U, 0x3e0494163dada0b0U,
  0x3e0dd682bd681c62U, 0xbdb541cc3e21401aU, 0xbdb6e9a5bd18e4bcU, 0x3e14d632bc1918b0U,
  0x3dd61f743ded76bcU, 0x3c673d80bdfc0cf8U, 0xbdf2b4d8bd9e82fbU, 0x3c4f20a0b9be4e00U,
  0x3e0a3f2a3e2ba866U, 0xbd771e143daff118U, 0x3e20c5323c7e95e0U, 0x3d81d064bb274500U,
  0xbd87e8003d0dac30U, 0xbd2ee5a8bdd75b65U, 0xbcf9f4683d6fe7a0U, 0xbdd419053cced5b0U,
  0x3d92f4a63db637b4U, 0x3d8aa1363c19ad40U, 0xbcbeab603e28d4d6U, 0x3e1b33323d2149ccU,
  0xbdc56dcfbceb09e8U, 0xbc0c1590be26bbd7U, 0x3e099ca0bdaa2047U, 0xbd5c56bc3df8e650U,
  0xbd907b8abe04f2f4U, 0x3dcdcce43d0c32bcU, 0xba84b2003d27030cU, 0xbe297ba73e2166ceU,
  0xbde1f8e23dbc18e0U, 0x3e2506b63d3a42b8U, 0xbcddd6383dca4194U, 0xbcc5c578bdc33162U,
  0x3dbee440bc7b6220U, 0x3e028f84bdc46d22U, 0xbd9d7adfbe01b8f6U, 0xbe00c982bdc4dc05U,
  0x3df0ae8cbd8d8860U, 0xbcfda5083ca6aaf0U, 0x3b47f800bdc344c8U, 0x3dfcf2643dcb130cU,
  0xbdc87cddbe1c363cU, 0x3cb685e0ba075200U, 0x3dc3c5b0bd760d62U, 0xbd142020bdc68a1eU,
  0xbd91a1b2be245003U, 0xbdf6ac78bdacce9bU, 0x3e0176ae3c8cc3f0U, 0x3de067fc3d7dc204U,
  0x3cc03308bbb8e300U, 0xbd16cd80bd03c6a0U, 0x3cfbbb183e000abaU, 0xbde34fb8bdb0cf45U,
  0x3c80a0f83d372270U, 0xbdde05c83d5e9bfcU, 0x3d9b2fb43df51914U, 0xbd195d0cbd028b00U,
  0xbdffe8cebc3b2de0U, 0x3e16c0b03d163e6cU, 0x3de30074bcc88f48U, 0xbdda5e32bc866f48U,
  0xbd4919023d6278fcU, 0x3d9eb798bdbbd606U, 0x3cfe93b03e292e62U, 0x3df5a47cbe056e9eU,
  0x3db16010bdd4859fU, 0x3e1e8d9abd2ffd70U, 0x3d9b370e3d547048U, 0xbd9fd45e3d19aab8U,
  0x3d9e3d58be1903fbU, 0xbe04a18bbd452b86U, 0xbd327e30bcd1d428U, 0xbbce51603d288098U,
  0xbd34d17abd63b53eU, 0x3e05e12ebe043598U, 0xbd85df113d57ae58U, 0xbd493f14bcea2140U,
  0x3d9a9c843d9f8160U, 0x3e061acc3dfa32ecU, 0x3d4437683d0a10a4U, 0xbd69246abe09ff70U,
  0x3d03d5c03b759980U, 0xbe14b2643d9308c8U, 0xbdba29b33e00dc3eU, 0x3e27d486bd6bcd0eU,
  0x3ddf67743cea97f8U, 0xbd22058cbcda4810U, 0x3d93374a3d65fdd8U, 0x3c1ea280bd4acdd2U,
  0xbe230d733b9a3940U, 0xbd263000be04410aU, 0xbd933a3f3da6e764U, 0xbdf6c5e23e1b7f9cU,
  0xbdc2f2f33e0121c8U, 0xbda7164a3dbb7970U, 0x3e2add88be14a7b8U, 0x3dedc468bdae042aU,
  0xbd887a773de70a20U, 0x3dd8a958be11e5ccU, 0x3d4d4b5cbe00cc21U, 0xbd9b0095bd11aec0U,
  0xbe09fe083dede9e0U, 0xbc4154c03d0f185cU, 0x3db02f54be258614U, 0x3e2525923e1e25a8U,
  0x3e16b7f43dc97134U, 0x3d3b623cbd8c6c21U, 0xbc8cea683dabb4a8U, 0xbd50cd983e232bacU,
  0xbd544bc43dd501c4U, 0x3bfed6c03dbded28U, 0x3db26e0c3cac2270U, 0x3df59b90bd399276U,
  0xbe173384be08f8c8U, 0x3d44c5fcbdd5868cU, 0x3e2161c0bd91ea72U, 0x3c4e7610bdd381e7U,
  0x3deb64303cafd1c8U, 0xbdcc5905bd5f92b0U, 0xbd2487f4bd2d91dcU, 0xbdcda6b5be2cbc54U,
  0x3e2b5082bd267b50U, 0xbd36f3a8bd054844U, 0x3cfdd298baba5b80U, 0x3dfcff883de1460cU,
  0xbd072b703dc9f2a4U, 0xbd41fed43c8e65f0U, 0x3d8b0c9c3d98d2f8U, 0xbd2cd370be20111dU,
  0x3e0ecf76bc9612c8U, 0xbb8e71003e295018U, 0x3d8c251e3adf8c80U, 0x3d00da68bcf68890U,
  0xbd7ca2083c6a76b0U, 0x3d0b029cbaeffa00U, 0xbd928d3e3b82d480U, 0xbdce92c73d20fec0U,
  0xbd2ec7843e1b824eU, 0xbdf17d68bdf69ca4U, 0x3da10a543c8024d8U, 0x3d012a483e2a0052U,
  0x3e102eb83d29a590U, 0xbe2a37e1be2c3fe9U, 0xbdf3428ebcc1e670U, 0x3df08ab83da3430eU,
  0x3d98b0e43da660acU, 0x3d8ceb84bda31ad8U, 0x3ce315983e1ca2deU, 0x3c3ae0a03ddebae8U,
  0xbcf28548bc6178a0U, 0x3d7eac98be13849cU, 0x3cc82e58bcc0efa8U, 0x3e22e0163dff0c44U,
  0x3de78efc3d19c82cU, 0xbd97a690be2b609cU, 0xbdb8f5883ddc9494U, 0x3d8b84f63db855ecU,
  0x3db72038bb5c8040U, 0xbdfd891ebdf19822U, 0xbe2ac37a3cd02928U, 0xbdb054ae3e2ccdb2U,
  0x3d116114bdb05276U, 0xbda08b0cbbfd3ac0U, 0xbd94ea033beb5ec0U, 0xbda45098bd06c088U,
  0x3d2ad6683e24fdbcU, 0x3df508603dd87974U, 0xbdd2112a3e24803eU, 0xbe08f2e4be22503bU,
  0x3e2717c83dffc044U, 0xbe1cbcc1bd8461ecU, 0xbc973480be0f7966U, 0x3da793f83be57fc0U,
  0x3e09037abe17c780U, 0xbd1e4a9c3d89fec6U, 0x3a189000bcee7700U, 0xbdb712103d1675bcU,
  0xbde19fc3be2a54a0U, 0x3dec4378bc66a810U, 0xbda69e3dbd5affd0U, 0x3db824ecbe0f171eU,
  0xbdeb1128be24041eU, 0xbbe254c03d169668U, 0xbd081e4c3e019a1eU, 0x3e03da923d130af4U,
  0xbde34c623e0cd4bcU, 0xbe168fa1bcb94a08U, 0xbb8a6e60be051254U, 0xbdab65123de2004cU,
  0xbd96e0c63da97ff4U, 0xbdfed3b9be19506cU, 0xbde37ba03d252144U, 0x3c2fd980bdcbf3e0U,
  0xbde3d8be3cd30360U, 0xbdb2f261be200291U, 0xbca029383e036de8U, 0x3d22e8243c440fb0U,
  0xbd777db4bc6c2ad0U, 0xbe277c22be0825b2U, 0x3d9cf1dabe2c5cd3U, 0xbc5d28303db8cb78U,
  0x3d5d26fcbdde84aaU, 0xbe0e3695bd95a74eU, 0x3d7c47fcbd3c1d90U, 0x3dc313603d62fcf4U,
  0x3e28532c3ddafe04U, 0x3e1560a23d55c05cU, 0xbde731443df43bc0U, 0x3dd7bd8c3dec8728U,
  0x3e02b3e6bc40ef50U, 0xbd89273c3ccd8100U, 0x3d17199c3990c600U, 0xbd16ea54bdf44b93U,
  0xbd912c083d87b6f0U, 0xbe1779dd3e0aee88U, 0x3e1529bc3daf0aecU, 0xbdeb3a3c3d7b28acU,
  0xbdec2df43dd4060cU, 0xbe282734bdd42f7aU, 0x3ddf05503d0fc248U, 0x3d7205e0bdad60dcU,
  0x3d82fd4abde3606fU, 0xbde5282f3d561898U, 0x3e2890f4bde28e3eU, 0xbd5add6abe23d393U,
  0x3e1a397ebd8fbf69U, 0x3d85b2d8bc00ccb0U, 0x3d911d28be1564f6U, 0x3d566828bdcb467eU,
  0xbdb89111bd83987bU, 0xbccb23183deb46d4U, 0xbd9d5d703e1711c6U, 0x3e0ed9003e29d402U,
  0x3dec988cbe1fa0b2U, 0x3d2b08a83e2b7458U, 0x3de09ce0bdb3f72dU, 0x3e21a66a3d8034f4U,
  0xbe22f35ebd0a8f4cU, 0x3d4f6fe8bd0b2af8U, 0xbda568e9bd8a05e4U, 0x3c92fe683e0068eeU,
  0x3b6ed280bdcf08d9U, 0xbe0ffd673e127cf8U, 0x3daf4f9cbd99651fU, 0x3ccfd4a83dc6714cU,
  0xbd508d32be0a0b73U, 0x3dc282303d535be0U, 0x3dac4794be00dbffU, 0xbe0ed8b7be1ece4cU,
  0x3dc890883c4b5b20U, 0x3dd384f8be205468U, 0x3cfbcdb03d172d18U, 0xbdee8d223d8f9696U,
  0xbdce08fabdb37d4dU, 0xbda7e0eb3d8627a0U, 0x3d94b6863cf9f6f0U, 0xbd9acd433dfd1fc0U,
  0xbd63c61c3e05666aU, 0x3db9557cbb74e4c0U, 0x3bea6ec0bd4bc430U, 0xbd5b5af63c842be8U,
  0xbc8eada0be19a4f3U, 0x3e2784debdb81b97U, 0x3e05c8e43df39eccU, 0x3e0d1d36be26dbf7U,
  0xbbb8f4e0bae69f00U, 0xbdedc4c43c295650U, 0xbca5f8f0bdf92d79U, 0x3d0e7b2c3da30a42U,
  0xbe216f02bc200dc0U, 0x3d19cea43dc59fc0U, 0xbe27d3803d5254c8U, 0xbcba8fd8be020ea1U,
  0xbd9b9ffbbe264448U, 0xbd978ba5bcdd4458U, 0x3d9bd2e6bb130880U, 0xbdb1adbc3e17a57aU,
  0xbd3d55823d2a70bcU, 0xbd7c7470be09bcdeU, 0x3c601040be18c097U, 0x3e22a7c23e1196c4U,
  0x3dd2dd103cbd0438U, 0x3dcacdb43d7a5b8cU, 0x3e0fbaf43d322adcU, 0x3e065eaa3d8b3c62U,
  0x3da56184bd217db0U, 0xbe18a5f23d03efb4U, 0xbd6554023c349290U, 0xbe164af03d1103a8U,
  0x3d2d0668bd9ddd4fU, 0x3decd88cbe09d826U, 0x3dc2c864be2049f3U, 0x3e1007f23df7521cU,
  0xbd6491083e192ff8U, 0x3d3529803db7dbecU, 0x3c0e9430bc991bf8U, 0x3e16b9123d0d7aa0U,
  0x3d0e9b14be0ecd0dU, 0xbdb3f5913e08a454U, 0xbde9dc923cf1d7c8U, 0x3d315404be116397U,
  0xbe10cd553defc4bcU, 0xbdb2d393be0910b9U, 0x3db8aef03bcbab40U, 0xbc6fc0d0be0c5fb4U,
  0x3c3e8fd0bdad7cafU, 0x3e19f7603e2caa7aU, 0x3d40d338bdcaf3c6U, 0xbe0634a43dc2a548U,
  0x3e2cde083dd36434U, 0x3cdffd18bc461f10U, 0x3dc578c4bdffbacfU, 0x3ddc6070be226edbU,
  0x3ce972f83db318b0U, 0xbd2827b8bc8e78b8U, 0xbd287798be13260eU, 0xbe0eeba53ddded04U,
  0xbd8000d4bd3cc042U, 0x3e2ac8de3e117c36U, 0x3e2946f83cbe18e8U, 0x3e09c1203d32fe30U,
  0x3e10a7f63e1c970aU, 0xbdd2ffb53d09ba24U, 0x3ac959003e12d542U, 0x3de6e7983d8644beU,
  0x3da5a954bd17bda8U, 0xbdd83562bd7ca016U, 0x3e0484a0bd2a014cU, 0xbdbd60cbbcd57768U,
  0xbd509f283e15dde8U, 0x3d61e3103d2e340cU, 0x3dd5a0b0be2116ceU, 0xbd52a6c2bd200d40U,
  0x3dbc73b43e289006U, 0x3c780bd03d3254f4U, 0xbd63f032bca98ca8U, 0xbde4917e3dd958acU,
  0xbc89f2983e10bd96U, 0x3c0cf5c03e033eeeU, 0xbe2344063dbf22bcU, 0xbced58b03de6d3e0U,
  0x3e12b7b4bd611e6eU, 0x3d819e52be142a83U, 0x3c5caa40bd5644c0U, 0xbda264b73d325b40U,
  0xbca838503cdb30e8U, 0xbd6351c63cffc578U, 0x3e01434ebcd3a740U, 0x3d1f2b2cbd361d3eU,
  0xbd5000dc3d0f7644U, 0x3e0afb463dbc8ddcU, 0x3e0522f23caf4468U, 0xbcb335d83d648fb8U,
  0x3d89ef8a3d82c86cU, 0xbd29840c3dac10f0U, 0xbd41c4cebcc6bcd8U, 0x3db0d6dcbdc4252bU,
  0xbe033e50baa77200U, 0x3dbb8ad8bdb0dcd0U, 0x3ca7c8183df36bccU, 0xbe2bf606bd738cf8U,
  0x3d94413cbc621630U, 0xbd842606bd033b64U, 0x3d6f7894bb8bc000U, 0xbd0bfef83dc4d380U,
  0x3e0a1bd23db83e44U, 0xbe22ff303e0e97c8U, 0xbe014eda3d9fbb3eU, 0xbcf0fac0be04a5a4U,
  0xbb1a17003db5b5b8U, 0xbe05b5f6bbaf8d40U, 0xbcad1260be15a84fU, 0x3cd2e4083d3403fcU,
  0x3bc791e0bcfd7fb0U, 0xbdb57d77bdd04d94U, 0x3e00b39a3dc71cb0U, 0xbd6e9d0abd0560a8U,
  0x3c4d4dc03d612b08U, 0xbe28163cbe2c17f5U, 0x3de8e7ecbcfd3ce8U, 0xbd0599743d87c13aU,
  0x3e0e66fa3dc03444U, 0xbc59def0bc1ef630U, 0xbe2490ffbe1c1622U, 0x3df488c43d3e891cU,
  0xbddce984bcbf5bc0U, 0xbc0c9790ba173000U, 0xbd7646dc3db5cc78U, 0x3d48ec0c370d4000U,
  0xbc0cec70bdd8c059U, 0xbda7a38fbdbab5a2U, 0x3e07559e3e061eb0U, 0x3e00724a3affd400U,
  0xbdde6ed63b42c780U, 0x3bad25a03d710ea0U, 0xbdf9778d3de3fa1cU, 0xbd0ddf483e122f9aU,
  0x3dabcc883e255cbeU, 0x3ce0ff783db35984U, 0x3d14d19cbe0c4b8cU, 0x3de2d0903d19fe0cU,
  0x3e1756dcbd074d20U, 0x3c32f8803e058ec8U, 0xbdcc3814be185d64U, 0xbd122228bd71686cU,
  0x3dccb3b8bc329720U, 0x3dc6bdf83e0775b6U, 0x3d1334743e2542ceU, 0xbdadd1e1be0800d3U,
  0x3e2a745ebe28f41cU, 0xbde700aa3ce08bc0U, 0x3e1987babd8c84beU, 0xbe1b12d13d246754U,
  0x3e15b8d2bbd7da40U, 0xbcfed4c8be10af13U, 0x3e22c3fabbe8ae20U, 0x3bf739803e2be25aU,
  0x3d9e912e3d399078U, 0x3ce11cc83df7c938U, 0xbdf91cee3c8362f0U, 0x3dc11fd43de48598U,
  0xbd62a68a3dfbed0cU, 0xbaaac7803ddf570cU, 0x3e21253cbe18f148U, 0x3d2162c43ca050b0U,
  0x3da8494c3d1cb608U, 0xbdebd9ec3e2c62e6U, 0x3c166d703d5289c4U, 0xbdeae85cbd8466b3U,
  0x3e01db203c2d3200U, 0xbd3022143e119cfcU, 0x3de9e3ac3d34877cU, 0xbd06287cbe085ad8U,
  0xbd0d1ba03d6e78f4U, 0x3df639a0be1f5870U, 0x3e123e703ddebc4cU, 0x3b8ce940bdacec3aU,
  0xbdbc06c93c741f20U, 0x3d953bd23de91120U, 0x3df4bc4c3cf903b0U, 0xbcb9b1d03d9017aaU,
  0x0U, 0x0U, 0x0U, 0x0U,
  0x0U, 0x0U, 0x0U, 0x0U,
  0x0U, 0x0U, 0x0U, 0x0U,
  0x0U, 0x0U, 0x0U, 0x0U,
  0x0U, 0x0U, 0x0U, 0x0U,
  0x0U, 0x0U, 0x0U, 0x0U,
  0x0U, 0x0U, 0x0U, 0x0U,
  0x0U, 0x0U, 0x0U, 0x0U,
  0x3e87d344be2d87b7U, 0x3df889d9bdc6c4b2U, 0xbe81bd0e3d10f942U, 0x3e01f542be599aeeU,
  0xbe6923dbbe2e6b64U, 0xbe1572c23e8b6170U, 0xbd9bddd7bd47a327U, 0x3e7ae079be22ad9eU,
  0x3b9b559f3cc91b93U, 0x3dad47d33e0ca49aU, 0x3e6e0fb93e143291U, 0x3e87f8a5bdfb23c0U,
  0x3e5f5c9c3d713749U, 0xbe579f693e45cb0aU, 0x3e7ff5d2be0307d6U, 0xbe4a5223bdb1704dU,
  0xbda0257dbd7375e4U, 0xbc91efb33ce6210cU, 0xbcc117ea3e890de8U, 0x3e155ed4be69eb78U,
  0xbe0579f73e2e581cU, 0xbe8a65bf3e854fbeU, 0xbe2864cbbe5339d2U, 0xbda927d2be4250b7U,
  0xbe0a2e3bbe3a8afaU, 0xbd03d785bc993594U, 0xbe425cdcbe0d887fU, 0x3d9050743dd2802bU,
  0xbd4e89a5be61ecd9U, 0xbd1dac923e51740aU, 0xbcc19e993e542380U, 0x3cd652f23e2671a9U,
  0xbe46e9403e66abfbU, 0xbe4d61d93e25eddcU, 0x3e8949ca3e8a374cU, 0xbe41e74bbdf21db0U,
  0x3c8034e83d1f58e3U, 0x3e1f2dcdbd98227aU, 0xbe2f4b12bdfde4a0U, 0xbd8a73503dba0512U,
  0xbe8991e9be19bdbfU, 0x3e24cb7dbe84d0a0U, 0x3d0d0aa33bc6bd11U, 0xbd29d1e03dfca6dfU,
  0xbd13c20b3e1bc16dU, 0x3e58a3f23cf24aceU, 0xbe77d1c4be44920dU, 0x3e4f48edbd3916a8U,
  0xbe333978be714fdcU, 0xbe68e7fa3d29f9d7U, 0x3dd6a1043dca6ed8U, 0xbbc95d7b3e8a386cU,
  0xbe672aba3d8edb34U, 0x3e7ba50bbdb2bd8eU, 0xbdbfee163e27440cU, 0x3defdcbe3e49bc2dU,
  0xbe88b9313d455beeU, 0x3db8ee49bdd5f5aaU, 0xbd767789be32a9dfU, 0xbe8b89f7be755f7cU,
  0xbe576535be037f8fU, 0x3d928e6a3d14a2eaU, 0xbe67cf5bbdbe4fb3U, 0x3ca3a48f3e849ed5U,
  0x3dca1d0a3e06155fU, 0x3e6089f83e1a9707U, 0x3e4531243e18bd26U, 0xbe28bc26bb615929U,
  0x3d34677a3df0fa61U, 0xbe609aef3d53503dU, 0xbd35cda43d14dccbU, 0xbe27a402be097dc8U,
  0x3e48606d3d0cc71cU, 0xbe0a1844be62cd5aU, 0xbe145e85be7b4609U, 0x3bf474f73e7bfe84U,
  0xbe0fdd1dbc10ef14U, 0xbe6c87ecbe0a854bU, 0x3bbe10adbe71d71eU, 0x3dc46472be03cc6cU,
  0x3e1698d6be82c830U, 0x3e2c310dbd4de38fU, 0xbe32c7593e5199a3U, 0xbe44c382bde01760U,
  0xbdff8b523c956212U, 0xbdf4871b3d49df82U, 0x3b7681743d0b0e54U, 0xbe426b3f3e67434bU,
  0xbe8150fd3dfef1efU, 0xbe79bd903e5da520U, 0xbe507b583e89f606U, 0x3d9250ba3e5acc14U,
  0xbd7c80eb3e4ea670U, 0xbe5135683e86d4bbU, 0xbdbd2b20be581b04U, 0x3e124801bd1089f1U,
  0x3e8adf10bdaae35bU, 0x3e263211be2b081cU, 0xbcad40a43e193beaU, 0x3e22c1fabdf35e75U,
  0xbe06c0fbbb7801c3U, 0xbe13f6e53e81c0cdU, 0x3e4f9d36bdda0e46U, 0x3d685c6b3d3865d7U,
  0x3de3f484be11ca2dU, 0xbdd4576bbdcd32bbU, 0x3d9826a73dae93d8U, 0xbe4e554f3e6bd3c2U,
  0xbdee36143cec3965U, 0x3e83212cbd38ef51U, 0x3d8eb515bdeb8124U, 0x3e690bf13dcfa251U,
  0xbe1648e93d0f9210U, 0xbe6fdd533e827686U, 0xbd06d616bd8d3975U, 0x3e223344bdfb0e9bU,
  0x3deab14bbd054d19U, 0xbdc2e5b53e3949b2U, 0x3d440d193e7db588U, 0xbe18653abe35f1a7U,
  0xbe1d73f1bd8ce85eU, 0x3d758434bdb08001U, 0xbe4b85cabe44c3e7U, 0x3d97bc09be0a116dU,
  0x3e304fbabe16e675U, 0xbe2b4d283e349e64U, 0x3e3e71153e64ddfcU, 0xbe2d38a93e24b0b2U,
  0x3cf122e4bc8e5e08U, 0xbcafa4563df71891U, 0xbe6bccb6be871349U, 0x3d23ba8c3e24a961U,
  0xbddb6cfb3d024ebbU, 0xbd15b3573d574204U, 0x3e61fbd03e1fd1bcU, 0x3ddc5ddcbd83121aU,
  0x3e2245b0be31ce99U, 0xbba469f53ddba15cU, 0xbe6099503e053e17U, 0xbe5c19533dc9ff72U,
  0xbc4d6457bc889335U, 0xbe30eff1bd886a01U, 0xbe53279ebe599344U, 0xbe8970b2be10ad43U,
  0xbbd0d7c6bd92b939U, 0x3e82ea513d9b1000U, 0x3e3aa1c73e6ba354U, 0x3db3ac2dbc8bb13fU,
  0x3e19c0473e2b2237U, 0xbe6fb746bd38aa22U, 0xbd9494c8be5c09e9U, 0x3e7206973e62b155U,
  0x3e66d3b0bd809aa7U, 0xbe19500d3e228f7eU, 0x3e86f720be86412aU, 0xbdfbb3babdb40e8dU,
  0xbe3e4dfd3e1d531eU, 0xbd50a5b4be1798bdU, 0x3e021c35bd2d8b52U, 0xbe41e0d8bdddbeffU,
  0x3e1dd4053d414564U, 0x3dbefa173e7e8a89U, 0x3e6ce09bbe0ac05eU, 0x3e220c0dbe85939aU,
  0xbd89f6523e7afc51U, 0xbd124c7b3df5d965U, 0xbe63e7e7be46a8e8U, 0xbe4fa080be368512U,
  0xbd991dcabd0c0e23U, 0xbe3f4098be0b9c5bU, 0xbe6c2274be762c51U, 0x3e6540efbdf30686U,
  0xbaa165583e14902fU, 0xbe47e17bbe449c67U, 0x3b82f43ebd5f5120U, 0x3e6e87ed3dc49434U,
  0x3d9ec013bc3ddd34U, 0x3e21548a3e803b5fU, 0x3e650808bd8e0038U, 0x3e668a17bd4b9be9U,
  0x3e5f36c13d8f7ec7U, 0xbd7cdc7cbc9483eeU, 0x3e8a94f43e03e24dU, 0xbcd28aaebe0a4af0U,
  0xbdca844d3d4017a3U, 0x3e589ba9be898c88U, 0xbdc086dcbd9ad39bU, 0x3d7e5d32bdbf4398U,
  0xbdb09b1abe61a939U, 0xbe5eb6823dfc1052U, 0x3e34a1b03e704149U, 0xbdbc78973dbb7e89U,
  0xbd3194a23d55feedU, 0xbc4a2501be6937cdU, 0x3db9492a3dd12e7fU, 0x3c11228d3e07a148U,
  0x3e4b5b243e3c7f46U, 0xbe807f223ca13f6dU, 0x3e1e47803de6a14cU, 0x3dcce0c0be08f7c3U,
  0x3d573ae5bddcf4d9U, 0xbe0de510bda471eeU, 0x3dcfde9a3db08291U, 0xbe052b2fbc90de86U,
  0x3e1d36d1be1e601dU, 0xbd3b65a03e5cd5bfU, 0x3cc8c02f3df8b078U, 0xbe32a1483cb8395cU,
  0x3c4f0981be4936a6U, 0xbd0353cd3e63c2f0U, 0xbe75a15e3e859ed0U, 0x3daf0f913e7036aeU,
  0xbe88ee8cbdec305cU, 0xbd98c8b03dae0962U, 0x3cb3e1eb3e0b4a15U, 0xbd863b32be070dd8U,
  0x3e70051cbc72d7ccU, 0x3d9a6f6c3dc92146U, 0x3e1390a53e863f64U, 0xbe8155d93e53ae11U,
  0x3e7734113e699b32U, 0xbd9169cebde05aecU, 0x3ccb94523e2b295eU, 0xbd8394d7be5825c6U,
  0xbe6625c5be306721U, 0xbe19e7933d95b7a7U, 0x3cd516fbbe84544bU, 0x3d1b8978bcf20abeU,
  0x3e8787d2be4b8c27U, 0x3da04669be44c734U, 0xbe56821e3e2982ecU, 0x3c326e8a3e70e75fU,
  0xbe206dfebe446bf4U, 0x3e487b22be785576U, 0xbd7fe620be00f259U, 0x3cbfa3593e57b349U,
  0x3e01f56ebd4bb5b6U, 0x3e8b068dbcecc9eaU, 0x3e2a25783e80a268U, 0xbd7a20c5be700753U,
  0x3d4f9a76bcc14ce3U, 0xbdec82f53e307bc8U, 0xbdc165663d8dfe70U, 0x3e203f00bc34cb3dU,
  0x3e2622733da0262dU, 0x3dd92c9d3e036ac0U, 0xbdb1c2c23e30d9c8U, 0xbcb134c2be5d5277U,
  0x3e8321d63c8c6828U, 0xbe2d9c0ebe6baedbU, 0xbd7ce46b3cb3a802U, 0xbe4d92813e1dc6a1U,
  0x3e53cbfd3da6f932U, 0x3dbf2d15be18e2deU, 0xbe0a3d0c3e768aafU, 0x3e05e264be8b6418U,
  0xbe0e19bd3e8897e5U, 0x3df39a0f3d9a65a6U, 0x3e0021f63ce8bd77U, 0xbe7c38893e77b375U,
  0x3d8fa9d1be893dc4U, 0x3e316bad3e1b678fU, 0x3e396ffb3d9fb3dcU, 0x3e6d0f093cf50694U,
  0xbd2e4d553e090607U, 0x3e8225583e132ed2U, 0x3ce3493abdd5b5d2U, 0xbc936113bbbfcf74U,
  0xbe379e8cbc1a068aU, 0xbe1b73e43d07c2b8U, 0xbe8200163c41b3f6U, 0x3d2187c43dbc6807U,
  0x3d1ef980be3e2670U, 0xbe89944e3ba27ef4U, 0xbdc98af1bce0023dU, 0xbcaa0fdc3e89c341U,
  0xbd842b403e7afcf9U, 0xbc3530903e36e806U, 0x3d560884be064119U, 0xbe827970bd830ffaU,
  0xbdc9ef1ebe5d73f2U, 0xbe2589073ce027c0U, 0xbe5d10ec3e0fa45aU, 0xbe0cd569bd767222U,
  0xbe690033bdea916fU, 0x3dfe30583d959af3U, 0xbe74c6753dfbd68dU, 0xbdb081a5be589b7eU,
  0x3daa72b8bd07bc6dU, 0xbe7c81423db76adfU, 0x3e1a998fbe71cabfU, 0xbe4dcc723da271d2U,
  0xbe33f449be5b8d0eU, 0x3e2c6b973b105687U, 0x3e07dd853e12eb9fU, 0xbe808f96bd49973fU,
  0xbca2ee06be0c0b40U, 0x3b7bcf463ca4fb43U, 0x3e31d000bdc3abfbU, 0x3e1f2bdb3e3cad9aU,
  0xbe19a7b6be54850bU, 0x3cc215a9be2a883aU, 0xbe4a49f33d8655d3U, 0x3e8381003db7c3d3U,
  0xbe0508863c16869cU, 0xbb10c9783e2c2232U, 0xbd2e85b6bdcf4ce8U, 0x3da167c43da8e12bU,
  0xbe7baa2abe1e2416U, 0xbd333659bd501097U, 0x3e3237093e836cdcU, 0xbdc944cc3e896ff5U,
  0x3d9f6032be805f68U, 0xbd80e1ed3e107f96U, 0x3dd180e43d858b39U, 0xbe7c79153e4f6e0cU,
  0xbe4071cd3d16f716U, 0xbcec5cf83e80a397U, 0xbd6180243e510f6dU, 0xbe7434263d8513e0U,
  0x3e85a97b3d6157b1U, 0xbd2e9d97be3fe17fU, 0x3e704a9b3dd98739U, 0xbd68b1143e023b0fU,
  0xbe23b2573d308db8U, 0xbd5be85b3e5f9ae6U, 0xbccb29d83e72b4f8U, 0x3e07ce573d5c970dU,
  0xbd8a2ab5be454b24U, 0xbe3d5d4d3d9b3eaaU, 0x3dcbe1d8bc6d6bfdU, 0xbcb0a4c5be591cd8U,
  0xbdac89693e869ec8U, 0x3d9159ca3d8e0f9eU, 0x3d9ccbfb3e4d9dbeU, 0xbe41b7043dba7ab6U,
  0x3db96b353d32634cU, 0xbe6bce743de6117eU, 0xbd043fcfbe154c5eU, 0xbbc52d043dfbd601U,
  0x3e0ff3403e07a67cU, 0x3e744a5cbe86c667U, 0x3e6dd7183e25d99aU, 0xbdc5f7fa3e3b573eU,
  0x3e82431cbe88d8ccU, 0x3ad664903d3c66ccU, 0xbcae4bd2bdcf8b6cU, 0xbe38b9f0bd44c282U,
  0xbcf32a213e7e2f18U, 0xbdc19c85be45111cU, 0x3e76cf5abc0aa542U, 0x3d263c7abdbc890bU,
  0xbda8175d3d8ea2ebU, 0xbc11d596be42f04fU, 0xbe2e1a173d921f65U, 0x3e05a040bcd7b595U,
  0xbe79c3313d4f5a7fU, 0x3de6437c3bc7b8f1U, 0x3e00c250be1c96d4U, 0xbe16f24c3d731754U,
  0xbe84c4ec3e73ce3cU, 0x3e8b9b103e6fc9ecU, 0xbe48a318be610894U, 0x3e50fa0fbdb661bbU,
  0x3e5f32083db07b02U, 0x3cd730263e6cd970U, 0xbd1d75013dd0e2bcU, 0xbdae8bcd3de43537U,
  0x3e855d493dda4ea0U, 0x3e8b9ff63df074a2U, 0x3dc9c436bdcbf56cU, 0x3d6d9ff7bda827dbU,
  0x3df589283e86e3c7U, 0x3e025adbbd75573eU, 0x3e11245d3e322d09U, 0xbe8abc31be4db469U,
  0xbd97b819be1180b2U, 0x3deed7ebbe830a8dU, 0x3e7f9be2bdab1948U, 0xbe82562abd9287d9U,
  0x3e55a353bd7d85c6U, 0x3dad8c36bd95bda4U, 0xbdc7b8fdbe6e10f0U, 0xbd980360be370863U,
  0x3e1eb22fbe8509c7U, 0x3e37519cbe1bc4d5U, 0xbda134febdf7902dU, 0xbe48a72abe570dd2U,
  0x3defc81c3d7a1aceU, 0xbe459d303e829a33U, 0x3e7646a33dae178cU, 0xbe5d762abd6072cfU,
  0x3d30606dbe50889eU, 0xbe2c4522bdcc65c7U, 0x3dcb2f233d630792U, 0xbe7d363e3e6942e6U,
  0xbd7fa94cbd40d636U, 0x3e73beeebe85fe39U, 0xbdab39723c82ec2fU, 0x3e5cba2cbe36c69cU,
  0x3d89d620be81ddc6U, 0x3e35e3d9be6e77d7U, 0xbe6d2c9abe27f5c8U, 0x3d6b9cb1bd199728U,
  0xbe0e5474bd9694d3U, 0xbe1faa7c3df89f82U, 0xbe812e8d3e07f907U, 0x3e2c7bb93d7264bbU,
  0xbe7d7538bdab990cU, 0xbd1b6531bd1a8f8cU, 0xbe66763fbd9da1a0U, 0xbddb5a3bbe213367U,
  0xbcdc5fd43e024602U, 0xbe527a623e7f4119U, 0x3e24df5a3e1b3a8cU, 0xbe8081653e6ea729U,
  0xbc9e35813dc9cf34U, 0x3e794591be016297U, 0x3d42a3e7be784b2eU, 0x3e83b495be616e02U,
  0xbd91fabfbe53db81U, 0x3e49f3d0be85eca1U, 0xbe7d965bbe7124ceU, 0x3dd6b412be3d85bbU,
  0x3e34c599be3c9f8aU, 0xbe014a13be1801e2U, 0x3e4af2c9bdaae4d5U, 0xbe50059f3d802506U,
  0xbe81300ebdc58c1aU, 0xbddebc7fbe81f93eU, 0x3e880ced3e3cdc60U, 0x3d45d8f63deec94dU,
  0x3e2c592fbe8b9006U, 0x3dab9f793dd6975dU, 0xbe796cbf3e44028cU, 0x3e2e3a903dabbc5aU,
  0xbd8f5135be554cf8U, 0xbe40db823d982040U, 0x3e858893be3629aaU, 0x3e14df83bd82af1eU,
  0x3e338a723e3b9524U, 0x3e5ebb45bad00c60U, 0xbded77283d12b7b9U, 0x3dd701f43c9aeddcU,
  0xbde4dd2e3df37fa6U, 0x3e111804bdfb3f39U, 0x3e37598dbdc70977U, 0xbe26f0833e63271eU,
  0xbe6f4c52be39c176U, 0xbd43e51ebe8aed44U, 0xbe6e35723e2f9a0fU, 0xbe559af6be8b19ccU,
  0xbdd639ed3da8ca52U, 0xbe577edf3e707aadU, 0x3e6199b93e7445b9U, 0x3e74e8ec3dd3fa3fU,
  0xbd0fd6a3bd0d306eU, 0xbd44ba27be03909dU, 0x3e1cdd91bd421749U, 0xbe535a65be59675dU,
  0xbe2d43bf3d6a8e43U, 0x3dfb2a273d66a1d4U, 0x3e30c23b3de26cfeU, 0x3db10435bda528d1U,
  0xbe02485ebe6503cfU, 0x3e278180be811e97U, 0x3e6633f8be5ca0aaU, 0x3d3c43f8be1a3bbeU,
  0xbe57401ebe85e571U, 0xbc911a9e3e6c6cf2U, 0x3e6be4c43e8328b5U, 0x3e66f92f3ca78dbfU,
  0x3dec3dd8be8a40c2U, 0xbdb62133be39267cU, 0x3e6709e7bd8da66fU, 0xbcb537ef3de80cadU,
  0x3d955e863dcbc93fU, 0x3e3906983e8ab288U, 0xbde97d50bca87900U, 0xbca2404cbe88dff5U,
  0x3d52f391be7173c5U, 0x3e077562bdd007eeU, 0x3e7851193da6b0d3U, 0x3e3e81ad3d8e250fU,
  0x3e794aa53e69810aU, 0x3a9de7cbbe26b7d6U, 0xbb4ba570be80c4e6U, 0x3e04504fbc86e41dU,
  0x3e6adbf9be83c31bU, 0xbda0a5753e2f195fU, 0x3a68084e3d8e7ed7U, 0x3dd37cf3be337ed3U,
  0xbd6b476c3e71edfeU, 0xbe5afcf03e0f13faU, 0x3e4089263dba2342U, 0xbe46f9fb3e0d2e39U,
  0xbdba3378be5cb4ebU, 0x3e6b8e07be7b88faU, 0x3e4e16223e1f979dU, 0xbdd539d23e5c9927U,
  0x3e594a133d833d50U, 0xbd961c0abd2ebb4bU, 0xbdfa2cf4bdd09fbfU, 0xbe76126abe2dbb28U,
  0xbc532b7a3dc5a2adU, 0x3c078b87be898178U, 0xbe3d00c4be880533U, 0x3d5b70d3bd696126U,
  0xbe0309533e861965U, 0xbd578160be41a2baU, 0xbe31b92d3e244380U, 0xbdac8cbb3e875c71U,
  0x0U, 0x0U, 0x0U, 0x0U,
  0x0U, 0x0U, 0x0U, 0x0U,
  0x3e5c480f3daba221U, 0x3c8b95c33e6935abU, 0xbe6c850b3dedca39U, 0x3e5d76603cfc0040U,
  0x3d9d093fbe102db4U, 0xbd1cbd41bd6e93f8U, 0x3e02cdb7bd172728U, 0x3e5cea963d05e17eU,
  0xbd90bb72bc1ac571U, 0xbe18631b3df23191U, 0x3e616ae33e78870eU, 0xbd6d4812bb23c20bU,
  0xbdb14798bdbe558cU, 0xbd9431393daa7697U, 0x3b2f54903e4ac750U, 0x3dbcf671be355d5eU,
  0xbda5b0fc3e6b89a7U, 0x3d957acf3e469c4dU, 0xbe29b983be1196a2U, 0xbe654bf83da1907bU,
  0x3dbaade43e1bca7cU, 0x3e736891bdf367c1U, 0x3e21e7e4bd89b7b8U, 0xbcf842da3e1186dcU,
  0xbddd37383e2bed6bU, 0xbd0cb7fe3d07d33eU, 0xbc64f7723e26a3d8U, 0xbd79e495be431101U,
  0xbe56896b3e562c5bU, 0xbe29d817be6c6bc2U, 0x3e7838483e174488U, 0xbd21bcdd3cdfe399U,
  0xbe748c2cbe3c8967U, 0x3d4ee865be1b59e6U, 0xbcf092963d1cbcf1U, 0x3cb3bc1f3e3bb16bU,
  0xbd859cef3d977396U, 0xbe669801bdce7c33U, 0x3d8ce8403c98fe8cU, 0x3e5f9bea3c51972dU,
  0xbb5d73a9bddebfc6U, 0x3e2c850c3dd8b5c4U, 0xbd04ce513e2f4d21U, 0xbe1f80fabdb6a890U,
  0x3dfdff8ebda9654aU, 0xbda6771a3d277a11U, 0x3e55a550bd01c065U, 0xbd9afa533d8eea7eU,
  0x3e5f7a923db09f25U, 0xbe4203ac3c9cc650U, 0xbe6375683e5a18c3U, 0x3e6c86bbbd3283f7U,
  0xbe4f146cbe15a2d2U, 0xbe5e0fcd3d9ae95dU, 0xbd9c8748be6951e0U, 0x3e6caf66bd474daeU,
  0x3e17999d3e5d629bU, 0xbc6d2027bc24cae9U, 0x3de6939e3d6e58dfU, 0x3e0e1fc0be2c5063U,
  0x3da381b3be32c9feU, 0xbe5e480abd2fd57fU, 0x3d62d4683e31cc7fU, 0xbcbb975ebe4546e1U,
  0xbdf3e18a3e4b53c3U, 0x3e342d3d3e5ba83fU, 0xbd86669d3e5a5bfeU, 0xbdcfb37b3e4abcc2U,
  0xbe1f4146bdc39d3fU, 0xbe45ffbdbe056e9cU, 0xbe2b46613d5dd40cU, 0x3d311cd5be033fb0U,
  0xbd8af677be691084U, 0xbe5ace2fbe499cebU, 0x3e6013f33dccf4fdU, 0x3df05716be536c25U,
  0xbdc1107bbe52b93cU, 0x3db680553ca0c1adU, 0x3e09b494be360f17U, 0x3d5532d73e4fe5b1U,
  0xbe25653dbd5e35a0U, 0x3d8a5c333dba9b6eU, 0xbe16ecbbbd5070b3U, 0xbe4701483e205b42U,
  0xbdf45b6a3d16a568U, 0x3e0b5ccabe72e62eU, 0xbe347a4fbe1064a9U, 0xbe30ba2ebe3dcc9eU,
  0xbdd534cf3e07b9ddU, 0x3de830e93c8ff8f3U, 0xbe0c6e033df0f959U, 0xbdc3afc5bdaac166U,
  0x3ca7ea833df3c6bdU, 0xbe733fd3be0632dfU, 0x3e2ae4693d2a8c1cU, 0xbe0b8c28be716f4eU,
  0x3e2a13403e465a75U, 0x3d04609fbe08a97fU, 0xbd1648f43e285d34U, 0xbe689bc73d691c4bU,
  0x3d80b33fbd341674U, 0x3e457653be46e5c4U, 0xbda9603bbe68879aU, 0x3e1e52353df39604U,
  0x3d56ee9e3d979a01U, 0x3e12e1643cbfeb90U, 0x3e5726873e18d219U, 0xbc024cd33d163dd6U,
  0x3d556f2fbd247714U, 0x3e64038ebe04ef0dU, 0x3e438c1d3e744da8U, 0xbe692c1dbe4446c2U,
  0x3d9c9546be05fd76U, 0x3e1fd380be5a754bU, 0xbdd96e343e10d407U, 0xbe04f400be714da2U,
  0xbdb10ae83e276280U, 0x3d6fef9bbc80e1e1U, 0xbe3836d53cd146f8U, 0xbdc8dfa3bd91727bU,
  0x3dc6f63abd872c23U, 0x3d20e419bcefc171U, 0xbd7c118ebdebb1deU, 0xbe631d833df86656U,
  0x3e221462bd78dee6U, 0x3e048ad23dc64da7U, 0xbc6bd192bc8d55aaU, 0xbe52c533be30aa84U,
  0xbe103f56be29f334U, 0x3bd26892bda4ae3dU, 0xbd3cc7e7bc2b3197U, 0xbdaeba53bdff7646U,
  0x3e75b95dbe390856U, 0x3e6d53c53d3bafbbU, 0x3e7aea673c2899ecU, 0x3e28ff07be3a331cU,
  0xbbafe7fd3e608a54U, 0x3d8e6f85bdf9388bU, 0x3e011b6abd4abdaeU, 0xbcac77ae3e541913U,
  0x3e085eccbdf737a5U, 0xbe1ed910bca6b5aaU, 0x3e76bf18bdd1176eU, 0xbd0880f83e610658U,
  0x3e74130cbdb9c19aU, 0xbe2907a63c515df5U, 0xbe7c36513e47a3ffU, 0x3dd0af4b3d8190dbU,
  0xbe1398283e24ededU, 0x3e7c83c3be70474cU, 0x3d86206ebe2f69a1U, 0xbe7aa898bd0ba7e1U,
  0xbd8cb7863cc56dfcU, 0xbd9648dc3e69abe4U, 0xbdc61436bde8d34cU, 0x3da40e19be2e4aeeU,
  0xbd4919243d9db6b9U, 0xbcab800dbe3b3832U, 0x3da204643e0da2e0U, 0xbe3373a5be3cce1eU,
  0x3e1abdd6394d55b9U, 0xbbb49ee2be64022aU, 0x3d1105a1bceef5abU, 0x3e5eda933e7d615bU,
  0xbe78b4a4be395c1bU, 0xbe4054233dee6f4cU, 0x3e7e59ff3c581459U, 0xbdeb3716be09adc1U,
  0x3e38b065bdd8cf11U, 0x3c678a9ebe555b12U, 0x3b7267fa3e1f0117U, 0xbe67ff273e1b8fdfU,
  0x3d9f861e3e502629U, 0xbe4e4a51be320d33U, 0x3e6b78d93e7bc2fcU, 0xbe3fccccbe24d9fbU,
  0xbdb18fa7be4cbcd4U, 0xbe1ca5cc3db4a849U, 0xbe257b623e15100cU, 0xbe5957933e1d2dbeU,
  0xbe4402223d09645bU, 0x3de8b7c03e380d0aU, 0xbe528c423e299850U, 0xbe37c5bbbd6751a5U,
  0x3e041c98bd28233bU, 0xbe424fde3e096842U, 0x3e5e37c0bd71615cU, 0x3d54995bbe265716U,
  0x3d789490bde6ae6aU, 0xbe759add3e50bf69U, 0x3d1203203e3bad23U, 0x3dd03f293dbf9913U,
  0xbde20a7abe42de98U, 0xbe30ab2cbd2ea636U, 0x3e0715f63d3680d5U, 0xbd68bfb73e5ae92cU,
  0x3e626beebe6ee445U, 0xbda9bef73e08a63fU, 0xbe6bb7193e4e4426U, 0x3d959d52be59438eU,
  0x3e7f787ebdc3c5b2U, 0x3dcf3dfabe48e06fU, 0xbe750125be6bfc49U, 0xbe50f05fbe6aa9e4U,
  0x3e402c783def8a10U, 0x3cdd6d4a3da5e56dU, 0x3e17d7393daffdf2U, 0xbdff6d783e36f172U,
  0xbe670fa6bdb1b13aU, 0xbdd6a867be527ba4U, 0x3cd71639be44d1c0U, 0xbc9f549cbe5a9716U,
  0xbe49f6533dde203bU, 0x3e5b9d753d77f9e4U, 0x3e4c851bbdb4a45aU, 0x3e6922eabdc3fb1bU,
  0xbc5c7a49be72e0abU, 0xbba65537be5a123bU, 0x3cc82ce23e18ef2dU, 0xbe55f0abbdbd2893U,
  0x3de938af3e05432aU, 0xbe54dd7abe02c973U, 0x3d8acd5cbe67eb42U, 0x3e4bb7ca3e0cb452U,
  0x3e2ef24cbe48821fU, 0xbd39bdcbbe682c01U, 0x3e3937f03dbaa485U, 0x3e50337fbcf099d5U,
  0xbe5686a03e14742cU, 0x3d089c54bdd8ada5U, 0x3e5c59bd3e19cb61U, 0xbe37c0243e2b6261U,
  0xbe5164083e0d9cf0U, 0xbe5f4cb03dfb7cc1U, 0x3e033fc4be5d3f57U, 0x3c655526bcd3e382U,
  0x3e6ab97ebe1f2232U, 0x3defbfc1be5f8461U, 0x3e129d893e1b4771U, 0x3e70cea73e176aa7U,
  0xbdfeacf03e203be2U, 0x3e3297adbe479401U, 0xbe30339f3e2a753bU, 0x3e42776dbc5d78a8U,
  0x3e6014f7be23df6bU, 0x3e785220be3f987bU, 0x3d425ef0be673d54U, 0x3e3bd2be3d93ca46U,
  0x3e71086bbca0aaf0U, 0xbd80c016bd26aebbU, 0x3e52838b3db10d27U, 0x3daa365fbdfe0a2dU,
  0x3d7c63433e3a5877U, 0x3cc69ed53d76b3adU, 0xbe62bd473d19b0d5U, 0xbdcab96ebe10a5d1U,
  0xbd3df6b03e408041U, 0xbdb31bd43e210938U, 0xbd6925ca3dd4ec78U, 0xbc431d083e4daf55U,
  0x3d09553d3e674ddaU, 0xbe7928013e2fbfb6U, 0xbe1ffc42be3c4364U, 0xbd5496fb3e7f81e9U,
  0xbd857753be592ca9U, 0x3e6a96ea3e352df4U, 0x3e61f505bdce1e5fU, 0xbd3b994e3e1f57ecU,
  0xbdd56b683e068d48U, 0x3e5e6899bc778c92U, 0xbd52c3a73e1ad8e3U, 0xbe33c91abdb824efU,
  0x3e0d3556bdf32892U, 0xbe474de23dbc2d73U, 0xbce3468abe5a6894U, 0xbe6f86b13dd8d089U,
  0xbe49b310be306facU, 0x3e7d8f713dc2f854U, 0xbc3c08703e412cb7U, 0x3d59b5b3bcf4ce6cU,
  0x3e5f6cbcbc945e43U, 0xb988ae82bdb83b54U, 0xbe566254bddcbdd8U, 0xbc82690fbe4e1bbfU,
  0x3e00b20cbd8a4526U, 0x3e1bad743e7d3ccfU, 0x3dd0bc293e42dec0U, 0xbc1838c5be373a91U,
  0xbe34a0e6be06b18fU, 0x3e7e9713bdfd0ff5U, 0x3e3e54f43e1d614cU, 0xbd91fa613ddc8d3eU,
  0x3e68692a3e26b2dfU, 0xbe58fd2bbe5cf960U, 0x3e6b35bebe349004U, 0x3e73e30abdf331a8U,
  0xbdf7ffc33e168511U, 0xbe4244d7bd644689U, 0xbe254316be7369ddU, 0x3dd416c3be4d1102U,
  0x3bc94bbdbb92b939U, 0xbdbf6e70be271ce5U, 0xbe6983323ccbb52eU, 0x3c7f24d93e481691U,
  0x3e1f44723e1b3643U, 0x3d4d78a4be498f68U, 0xbe5acb6c3d85b753U, 0xbe74d2033db2513eU,
  0x3da89bac3e2b76d6U, 0xbdaf12103d69bd86U, 0xbe5f573fbd9296e5U, 0xbe581c943e2fec34U,
  0xbe2bd582be7fdda1U, 0x3da577a33e4e120dU, 0x3e6c9761bc137721U, 0x3ddb5bfdbdb5f297U,
  0xbe234b263d5fe4a9U, 0xbdb34e36be3b03b5U, 0xbe084a973e41a75fU, 0xbe3fe2d13ca4d1a8U,
  0x3e6f568b3e0475a8U, 0xbde1b56dbdf55c51U, 0xbd97fe84bc6133aeU, 0xbc67c5d73dc061f9U,
  0xbe0947923dd13831U, 0x3dd747ebbd7b3db9U, 0x3dcdb1adbcabb9e6U, 0xbd2f830a3e53d080U,
  0x3df3d97b3db68efbU, 0xbe65c6943d91a265U, 0xbe2b2151be3ee68aU, 0x3e286f96be75170aU,
  0x3e2be8843ce2d898U, 0x3e1fcdac3cb3eff9U, 0x3dcab4073e076bffU, 0x3e6e961fbc45627dU,
  0x3ded21473daeb4fcU, 0xbe6ca7433c198c99U, 0xbd71bbc03d10359bU, 0xbd9057af3e42ff07U,
  0xbe7419ef3e650ac8U, 0xbd0d27afbd7a7023U, 0x3da8044fbe261357U, 0x3e749ee6be2c4135U,
  0xbe54c226be25a146U, 0x3e0e405fbdab0b34U, 0xbe6d5f3fbd31fb99U, 0x3da64fc7bde6622cU,
  0xbdd30b1e3e44d4cfU, 0xbe6306523cdf9a62U, 0xbb9ecd2dbe5194daU, 0xbe65b01fbc8106ddU,
  0xbe3294613d287b20U, 0x3e789750bd887779U, 0x3e0f5564bd9326c3U, 0x3dfa183e3db96c75U,
  0xbcf98132be7f0a98U, 0x3d5720083cbd80bfU, 0x3decfddcbe548739U, 0x3e1e5b203d94d893U,
  0xbe40759b3de40522U, 0xbe60ba953dd803f3U, 0x3e406f8b3d2a259aU, 0x3dfdcbe5bd48f468U,
  0xbe7a8874be7d41afU, 0x3d6d7b0cbe4149a3U, 0xbe1f9018bddbf00aU, 0xbde50c08be3ce7c3U,
  0xbe1276763e301677U, 0x3da297a9be7e6c20U, 0x3dfd1894be1b16f7U, 0x3d828e233e77f0e5U,
  0xbdc5dd353dc9a711U, 0x3e333f47bccc1362U, 0x3e2f0a71bd6e4e61U, 0xbe62c70e3e4bc428U,
  0x3dcf51283d99040bU, 0xbdb3fe573cf257dcU, 0xbe6adf4dbd8a6c91U, 0xbd54896dbe64f44bU,
  0x3c71e74b3d930200U, 0x3daa73b83e2d7445U, 0x3b8b86a53d1f7757U, 0x3e447827bd59ecbcU,
  0xbdb35bbc3e2409d4U, 0x3d527970be3eac11U, 0xbd9e5696be4b9d7cU, 0x3e42a115bbabc185U,
  0x3d8251cebcfc2d82U, 0xbe3c49e2bdb05bbcU, 0xbdf0add5be25ec08U, 0xbe608c08bd388866U,
  0xbce183143e414502U, 0x3e61c615bdf86af3U, 0xbe1a29a93e6446a5U, 0x3e86ef013c10a15eU,
  0xbc4f69953e6ba5c8U, 0xbd1a074e3ba0c6edU, 0x3df83df33e8a8080U, 0x3d5086c83e814125U,
  0x3e4acd74be1310deU, 0xbdd5dfa1bdea3175U, 0xbe3996193d179e11U, 0xbdab1ef83e86d59aU,
  0xbdaec45cbd934347U, 0xbe6d5a843e681c5bU, 0xbe419074bdeba80bU, 0x3e6e22a2bd3e7f3bU,
  0xbd839a123af81b3fU, 0xbe1e79d9be4f8895U, 0xbdb81cfebdbc8889U, 0x3e7a506f3db61a8eU,
  0x3e0279edbe5ddfc2U, 0xbd2450e1be350992U, 0x3e5f22ecbc7d5db3U, 0x3e4cb318bd1d6e92U,
  0xbcb46809bde7ac0cU, 0xbd8da2e0be04ee06U, 0xbe3dacc4bd984206U, 0x3c0bb97e3e2c821aU,
  0x3e8688d23e12401eU, 0xbde610d03e186b4cU, 0xbe3797e4bd3d7e9cU, 0x3dbaa1f53dcc325aU,
  0xbe18f626be246976U, 0x3e8c1d30be03208fU, 0x3daf25ea3e4c3afbU, 0x3daaf50bbe85e9caU,
  0x3df9d872bc674c06U, 0xbe7ee6f4be42eb3cU, 0x3e4f73473e681f3fU, 0x3d927ae1be03e838U,
  0x3e78defabd78f81fU, 0xbd99933e3e59702cU, 0xbd5f89a8bd0433a1U, 0x3e1dafb4bdf910c2U,
  0xbd091f97be86b9a6U, 0x3e4d3a50bd6d038bU, 0x3dbe81d3bdb18035U, 0xbd6aa8883d2ea0bfU,
  0x3e505622bde66769U, 0xbbcd8cb23e203c20U, 0x3e55fae13e4128a2U, 0xbe2a004e3de30ca1U,
  0x3d771b38be6c9ed4U, 0xbe80b92abc5b0f57U, 0xbd8dd52b3d8ae779U, 0xbd8570783e80e21bU,
  0xbda39efdbe78f2c9U, 0xbe3847933e22b567U, 0xbd2a3388be386ed2U, 0xbdc523053dd9e25eU,
  0xbbb412743e44b0c6U, 0x3e18fe243a677461U, 0xbd0c4cbfbe8390aaU, 0x3e4e61d8be617926U,
  0xbe2321a4be5b9b8cU, 0x3da3b88c3d3e55d4U, 0xbe80ebdfbdb31de0U, 0xbdf3a05abe6796f9U,
  0x3e1ed4963d0e3e1cU, 0x3dc93bf73e2dfe66U, 0x3e72c00fbe170b2bU, 0x3e5cab983e1ceed8U,
  0xbe54cdbcbe15f9dfU, 0x3df736b5be879d21U, 0xbdf8e182bd403822U, 0x3c3b69043dca925bU,
  0xbe3caf78be4af325U, 0xbdea322d3df6e993U, 0x3d69e7d13e6d8ae2U, 0xbd07e488be33dc0fU,
  0x3c7006c83e822cd7U, 0x3e0e8c3e3e4f6ceaU, 0x3e0189ecbe3bf0dfU, 0x3e7fb6863e6df490U,
  0xbcafd3ef3e61f5e5U, 0x3dcc7ea03da7d4e9U, 0xbe31055c3e85cb1bU, 0x3e52f3713d40fc55U,
  0x3e743ce63d87d8d5U, 0xbe274be73d897e5bU, 0x3e77888abe7efb23U, 0x3e0b66e5bc6eab15U,
  0x3d0b6a60bdfbbbbdU, 0x3e37fee2bdfb678fU, 0x3e5d70c33d595e9eU, 0x3e39ec19be44b42aU,
  0x3e377e24bd886322U, 0xbda650433e48d428U, 0xbe8b6b74be3a1644U, 0x3e65ccb9bc4275fdU,
  0xbe39a46a3c032bb7U, 0x3d0c73d63e83d6dbU, 0xbbc8695abdbb0671U, 0x3d3c5f64be317c46U,
  0xbd9bc02d3e40f3ccU, 0x3e0f0706be685d81U, 0x3d18c4bb3e499e0dU, 0x3dcc25f83e46572aU,
  0x3e83d906bc3e16acU, 0xbe57dbf4be822865U, 0x3d9c0ad43da89b80U, 0xbe00a9f73d75763eU,
  0x3e3b76cebe5d22daU, 0x3e7741473df20053U, 0x3e36dc1d3d049880U, 0xbda9c97d3e89a161U,
  0x3d43b7c43e174788U, 0xbe146cec3d9c6d57U, 0xbce93400be7c18c5U, 0x3dce3eebbe7defeaU,
  0xbe0ca1523da573e3U, 0xbd9cf3783d96f9a6U, 0xbe570d5839c57ebaU, 0xbe35b3ee3e5c826aU,
  0xbd8cadffbe490e27U, 0xbe7f433fbe3dc3fbU, 0x3d987136be7386ddU, 0x3df8e8d53cf48585U,
  0x3e6cfc8c3e649ef6U, 0x3e51034cbe6ba709U, 0xbe14bd733cd12cfbU, 0xbb090777be0e99b0U,
  0xbd91262bbe8a297cU, 0xbd0799313ddde842U, 0x3ddc92c13b369722U, 0xbe2e6f15bd914ff1U,
  0x3e2dc58b3b6d2726U, 0x3ccd2aae3e333df8U, 0x3e486aa43df4d3c7U, 0xbc183306bd9d815cU,
  0x3e614caf3e863bcaU, 0x3d2dab6e3dd565fdU, 0xbd144ab6bd8fe198U, 0x3e81baec3df14f0eU,
  0x3dde0a293d13ae4aU, 0xbe2a5112be35c07cU, 0xbe67e9fa3e69a95dU, 0x3e539d8f3e2f377bU,
  0xbe2c3fe1be4e5948U, 0x3e1f66b43df34462U, 0x396bf1cebe2e8e5bU, 0xbe56990b3d8ff018U,
  0x3e14cdff3defefdfU, 0x3d4409893e181bf1U, 0xbe8b7fce3e4771dcU, 0x3d81b7523e56569aU,
  0xbe8200213e50df8fU, 0xbe8150583e3a8226U, 0x3d9936d4be4ab335U, 0xbe29f2ffbbd879ccU,
  0x3e28f7263d9d102aU, 0xbd3521223d89d8dcU, 0xbe82bbf5bd5970acU, 0xbd289c4c3cdf22e2U,
  0xbe664ae4bda66b66U, 0x3e8b4bc63e0980cbU, 0xbdd2c85cbe8b0195U, 0xbe1d4dac3dc8dfdbU,
  0xbd0e8d5abe15f2b4U, 0x3e788bddbe24cc29U, 0xbce11552bdc7c4b9U, 0xbe17e6493de7c523U,
  0xbcf80522bd303ee6U, 0xbb862d94bdf9cd38U, 0x3de52bf03e3c3734U, 0xbe31f608bd5c4977U,
  0x3de2502d3d0578d3U, 0xbe7a1554be411f57U, 0xbe4dd2ef3dfec2c9U, 0x3e435b263dcdde43U,
  0xbe331b423e2f348aU, 0xbe80dbf43e5dd39cU, 0xbe87dd2bbe10da27U, 0xbe02351a3e7111b6U,
  0x3cbadad63e851f13U, 0x3e8a377ebdffce8fU, 0xbe5399443e485c8aU, 0xbe2e4628be22e9bdU,
  0xbd804dce3e3105c4U, 0xbd43ac1dbdb229a5U, 0x3e3aca9a3db36bfeU, 0xbdc30b8c3e498096U,
  0x3ceb9c09bd9833a5U, 0x3e1a500c3d28b8a0U, 0x3db3d99c3d9b5916U, 0xbe4434d9be0c7529U,
  0xbdff6a3c3c645787U, 0xbe859ced3dc6389eU, 0xbd6ab01f3df7e7aaU, 0x3e0e22ff3e3ad2d5U,
  0xbc0234763df0104fU, 0x3e459976be4d3101U, 0x3d3c04b8be4b747aU, 0xbe35814e3e4e68e2U,
  0x3e52bcf83d6c6dbeU, 0x3e2573f73e077191U, 0x3df3d05c3e6289c2U, 0xbcc51cae3d57ccdaU,
  0x3e4d9b2ebe0cdf81U, 0x3e5b4e5bbe5ae07dU, 0xbe4ab559bdefc26fU, 0x3a7b09df3d8090f0U,
  0x3e3387603e438a6cU, 0xbbfc1a3d3e63eddcU, 0x3e0580e8bdc1bdf3U, 0x3d3eb198be5f5a06U,
  0x3e06d1d93da1f316U, 0xbe5e5c8b3e294908U, 0x3cee09e93da885dbU, 0xbb11d9563e83fb92U,
  0xbd3e921cbcf3acd9U, 0x3d9ad3683dc18963U, 0x3dff7b8ebd54432aU, 0xbdf80c1bbc0d6967U,
  0x3e6ce0ffbe30fae8U, 0xbe2c0d35be10cd60U, 0xbe09ae81bdab1ab8U, 0x3de0c7dc3c9e6b8aU,
  0xbe8612f3be85b174U, 0xbe52dd2a3b04b285U, 0xbe8891453dd31e13U, 0xbe7a6629bca20b83U,
  0x3e685ef33c02fa5dU, 0xbc65a75cbd54f4bfU, 0x3e0ce3aa3e4ab019U, 0x3e6958873de74e4eU,
  0xbcbc01213e86d0ddU, 0xbe81b3eabe2b82a3U, 0xbe85a2593e8ac51eU, 0x3e87d5383e01c20dU,
  0xbe4554f53e8607dbU, 0x3d3d38a9bd2d6513U, 0xbd02fb2d3df7b2f9U, 0xbe5e53aabd72ee0dU,
  0x3e34828ebd6ed58fU, 0xbe8709013cffe0c1U, 0xbe0fca6abe09f1fbU, 0xbe5cfff43d66edeaU,
  0xbe82a1723d7fd902U, 0x3e037619bdd24ca4U, 0x3e83654d3c8cdd69U, 0xbe2814d5bde0c4eaU,
  0x3c88c49f3e466244U, 0x3e49e5eb3e3fe1a9U, 0xbd877bbb3e481db8U, 0x3e13dc9e3e28c021U,
  0xbe10dcb4be073713U, 0xbe3cd1353e73674aU, 0xbd64f872bb9ac971U, 0xbe61348cbdf1af12U,
  0x3e7c71d5be57eac0U, 0xbdcb535fbe3179dcU, 0xbde81ae0be4da84cU, 0x3e69d0583dd184c8U,
  0xbdc05952be6510ffU, 0x3df2e3c2be008d00U, 0x3e80af1e3d038faaU, 0xbe68ffe9bdb48122U,
  0xbe7be0123e83f9bcU, 0x3ad257153d941f53U, 0xbe847a7c3ddf6aecU, 0xbe81a2073d18b9fcU,
  0x3e625cbc3c803138U, 0x3d8b784fbe18d556U, 0x3e263625be2c16ecU, 0x3dadefd93e2057edU,
  0xbd7f08f43dddb820U, 0xbe786e38bdaa5ac5U, 0x3e87d634bcc18ddbU, 0x3e3535cb3df8a9ddU,
  0xbde68b333e1d3506U, 0xbdec2f94bcf0faa9U, 0xbe85630f3d51ab73U, 0x3e1d91683d90443dU,
  0xbc8b4a5d3da1e0dcU, 0xbe08a1c33e415ec3U, 0xbc9d1c65be56f5cdU, 0xbe7f6da03d13a902U,
  0x3de1bb78bca9dcd3U, 0xbe437d0f3e0905abU, 0xbb0c430d3e2b6d8eU, 0x3dfc065b3c85838aU,
  0xb9324130bc5b9606U, 0x3d82a1d8bd620daaU, 0x3da073273e8449daU, 0x3e82b3babe6bb005U,
  0x3d9321ec3e553ec4U, 0x3c56fcfcbe1123a2U, 0x3d59bffa39afe57dU, 0x3e07a44ebe47be42U,
  0x3d739afbbcb21c75U, 0xbe3a2212be09feb9U, 0x3e688e113e57147fU, 0x3dc851ed3e012e80U,
  0xbe328db03e123ee7U, 0x3e0e6633bd6c5ac8U, 0xbe30286e39c5eeabU, 0xbe6c5578be3deb36U,
  0x3e715749be77763eU, 0xbd78684a3d290d9dU, 0xbd2a85193d99768cU, 0xbe32c421bdd528c8U,
  0xbe0d77443e51fd84U, 0x3e1e6eb93e460870U, 0xbe85888cbe8229b6U, 0x3dabfec53d614ecaU,
  0x3da719a9bde36d91U, 0xbdb832f5bd4cfe0cU, 0xbe47769dbcc732baU, 0xbdc313a93e6b9676U,
  0xbe0d56d03d7ca4a3U, 0x3e488ff7bda4952cU, 0xbdb6689abe3aec7aU, 0x3df396f33e114bc0U,
  0x3e36ebe3be1aa6d1U, 0xbe53d0bebe27a470U, 0x3e5050ef3b80eec0U, 0xbe01b0d33d4ee17eU,
  0x3e2d419cbe751f77U, 0xbe55e3473e18f38dU, 0x3ddc06673d52a7c2U, 0xbcc20fba3e222e87U,
  0x3d875a793e7c6af2U, 0x3e3e22813d926f0aU, 0x3d5086c83dbdb149U, 0xbdb1d7f9bd860d74U,
  0x3e6b71e2be706d79U, 0xbd0d5d51bdb7da71U, 0xbda8716bbe093e5eU, 0x3d87f9553e29dc0dU,
  0x3e8291babe7636f9U, 0x3e4ba14dbd818802U, 0x3e879f913db38836U, 0x3e881000be181ea4U,
  0xbe0520bfbdbdb43bU, 0xbd012761be56f9b4U, 0x3e10301a3d118758U, 0xbdf4630b3df95204U,
  0x3e5703da3e0f11dbU, 0xbe2a1cdcbe5d88d9U, 0xbdd83059bd4f7783U, 0xbe2849efbda95906U,
  0xbe1003a43e6e6cb9U, 0xbe613093bd86555fU, 0xbe4ee0ecbe471aa4U, 0x3d1f4126bc7ab6eaU,
  0x3e117b30be264423U, 0xbcdf3d8e3e8aaee4U, 0x3e05831a3c992896U, 0x3d5ac6003dc493dcU,
  0xbca61a3ebe414dcaU, 0x3e30b365bb453e42U, 0x3e53c9b3be46faafU, 0xbe2b3a37be10d869U,
  0x3dbbe1a1be6df5b8U, 0xbe3462df3e702d0bU, 0x3e0a60863d75376eU, 0x3dcb4cd73e076227U,
  0xbe43491a3d71210cU, 0xbe1397d43e85df2eU, 0x3dae405bbdf6d23eU, 0x3e889a7dbe89ac35U,
  0x3df20b6abd88cf02U, 0x3e4b17ecbb6e1e87U, 0x3e127ffebccc9302U, 0x3e0208803e09efe9U,
  0x3e0ca7d63e8bde2cU, 0xbdb9fa433dd88ba1U, 0x3e4e7768bd62e502U, 0x3e3d948fbe2a122aU,
  0xbdae1295bcc12b97U, 0x3e8295403e3707dbU, 0xbe2e75c0bd4b12a3U, 0x3e6f7c723d3e9abbU,
  0xbc72b6103db86a12U, 0xbe5f989bbe03be3eU, 0xbe8170f83e226771U, 0xbe30d118be885f96U,
  0xbe63253c3e5fe81cU, 0x3e80d5753dba862dU, 0x3e733b2fba94aaf9U, 0xbdb774f6be72e858U,
  0xbc83e7febe2166b9U, 0xbc9be58cbe8803ccU, 0x3e1cf9fb3de389b9U, 0xbe737fbb3dbf649dU,
  0x3c1978bc3e0eb019U, 0xbdb900a13e384d1eU, 0x3e10de5cbd8267a4U, 0xbe1edb6d3e49f162U,
  0xbdb49fee3e40ac3eU, 0x3d7d12453e84e422U, 0xbe48c588be1ed85eU, 0x3dfaafa73cfc6f52U,
  0xbe8a33cd3e70a81bU, 0x3c8736a2be7ac520U, 0x3d96a0cd3e32ff10U, 0xbe7600e5bc750025U,
  0x3d9c5e59bdbe48f6U, 0xbd92aaa5be34722eU, 0x3d98d9a8bd2639e2U, 0x3cf5495cbd4a1110U,
  0xbdbb0f19bc0f8fa1U, 0x3e3ac5773e8ac196U, 0xbd37adf6bdc63bf7U, 0x3de363b63cfde2a2U,
  0xbe452fa2bdc50a40U, 0x3d9f1d8f3e7b941eU, 0x3e1a3ce33e8b37f7U, 0xbe6e043a3dc7e9e2U,
  0x3e0ac45e3e1d0c35U, 0x3e09c4963e10690dU, 0xbd859f9ebe89e656U, 0xbe03d2873e704a40U,
  0xbe58f6823de358f8U, 0x3ce2bf5b3e3f8ba6U, 0xbe88f27b3e816760U, 0x3d8c7eb5bcaed101U,
  0x3de83550be560b5fU, 0xbe13da353c61be1cU, 0x3980d383bdfa0433U, 0xbb965f813e7d151cU,
  0xbd8d6ec43e797e86U, 0x3e1863abbdf7f64eU, 0xbdb69966bdccc90bU, 0xb93488e53e1dbeb8U,
  0xbd031719bcf805f2U, 0xbdf032b13de59117U, 0xbe84a6cebe2b6270U, 0xbe045904be82c590U,
  0xbe83be7fbe773551U, 0x3e8a1a7f3e6e36a8U, 0x3e551131bdd03db0U, 0xbe58fbac3e615e98U,
  0xbdb36cbe3e62cf49U, 0x3d44f40b3b03053bU, 0xbd637b8fbddd59caU, 0xbde5122d3e5ec358U,
  0xbe40c62cbd7ed227U, 0x3cf842da3e0f561eU, 0xbd819bc83d1ca94bU, 0xbe68516a3da8e4cbU,
  0xbca97b9fbe2ca33eU, 0x3dcf073dbe50dcf9U, 0xbd61fab43e00e7c3U, 0xbe854aa7bdef1de4U,
  0x3e0471f1be5b2abdU, 0xbcb3ac413e718f02U, 0xbcbf1edabe264ab0U, 0xbca7fdb03e589646U,
  0xbc1a2006bd946f51U, 0x3e6292053ca2b45dU, 0xbd55a83cbe296f8fU, 0xbe3f6066bdf02195U,
  0x3e3a1a0d3e2cbd67U, 0xbcf922163d6298e8U, 0x3e0782eebe87dc93U, 0x3e4ba90cbe1e2af2U,
  0xbceaa978bd7f4830U, 0x3db5bc1ebdbc5282U, 0xbdcb9a553ce2d5a8U, 0x3bc0d0d33d5e8985U,
  0x3b6a9ef93de05fb5U, 0x3d10d2afbd13e57fU, 0xbc4c7b95be1404b0U, 0x3e1470cfbe662110U,
  0xbe2722b93cb089d8U, 0x3e317f753d081f94U, 0xbe51d8f53d843375U, 0x3d9e5d78bd911a6eU,
  0x3e0fcfb23e30264fU, 0xbe0bf6aabe80ae7bU, 0x3e7e852dbe2af429U, 0x3d231c10bde1638aU,
  0xbe01205e3e5fd387U, 0xbdd60e67bd9e69d2U, 0xbddcc857be865d4bU, 0xbe2b9ac63e804c5bU,
  0x3e86ebc6be05df54U, 0x3d72a5cabdf7b7a8U, 0xbe75c841bdbf78cbU, 0xbe8215703dce847aU,
  0xbdaedaf1bc8f10a1U, 0xbe21f846be80bc05U, 0xbd429d10be24fe9cU, 0x3ade9284bdab9af6U,
  0xbe1987cebdaa8374U, 0xbcb796a1be87a903U, 0xbe19c77a3cc70647U, 0xbe81f2ce3cbcef62U,
  0xbe86c079be08e10bU, 0x3e413dcbbe084fe2U, 0x3d289ef43db2202cU, 0xbe8a3fee3da2a4e7U,
  0xbd45c8f0be40fc42U, 0x3d82002abe51fe6eU, 0xbca1a298bd24f784U, 0xbe3b51ae3c593670U,
  0xbd45dfc83d3eb3a4U, 0x3e00c2f53e215cb9U, 0x3e1d986d3df94aa2U, 0xbe0c1fd4bddfe151U,
  0x3bb50f003dbf428eU, 0xbe3ad52d3d043f18U, 0x3d81249a3e050c5fU, 0xbe2383b73de3637eU,
  0x3a5d3400bdb4f444U, 0xbdb4fd323e03fa51U, 0xbd76e844bdb52254U, 0xbdf9a3db3d909a16U,
  0xbe446be63e4937e1U, 0xbe56f838be50a220U, 0x3e147799be2aaaf8U, 0x3d7f311cbc92d628U,
  0x3cfa4ea03d4e970cU, 0xbd3d25883e58c819U, 0xbe36c3a8bd6eb670U, 0xbe1c5794be0b5978U,
  0xbd3a5878be2880b2U, 0xbd46da383e1df3ddU, 0xbe2cf8563e06fb2fU, 0x3de7bd5e3e0f2787U,
  0x3e593b6d3e36d619U, 0xbe47828d3d5b0244U, 0xbcb558283e283b05U, 0xbe3fe95abd987fc6U,
  0xbdd718f43e1efd0bU, 0xbe22a1dcbdfd2d0bU, 0x3c44c0103cd7d870U, 0x3dc5762e3d625e14U,
  0xbd035aa0baffd280U, 0x3e47fce13c3c36a0U, 0x3e5d5d3dbd850550U, 0xbe505d7ebd73d468U,
  0x3e4d17593c2797c0U, 0x3def2eba3e2c43e1U, 0xbe092c963dd094eeU, 0xbe30e9233db9479eU,
  0xbdbe371ebe59af12U, 0x3d6a8aac3e2f108fU, 0xbe0e593abdac7a94U, 0xbb8bcb40bdda705eU,
  0xbe36cd1a3c5476c0U, 0xbc1b6f803e00f695U, 0xbd4f14c4be58d6acU, 0x3e4d639b3e2ad0a7U,
  0x3d8f3e0ebe1478d7U, 0x3c829fa0be349c26U, 0x3e361c4dbe0e03a6U, 0xbd5c6e703e5663abU,
  0xbcd671e83d9444f2U, 0x3e336fd73c52a7d0U, 0x3d82cae63d537604U, 0x3d89d1fabe0f1cbeU,
  0xbd07dc20bd71ff58U, 0x3e1cd9833ddd7452U, 0xbe265f7e3cd52310U, 0xbe293818bd52e014U,
  0xbe2759dfbd900a3aU, 0x3e4be089bda1f92aU, 0xbcd2a4e83dc56002U, 0x3e593217bbccc720U,
  0xbcb04c60bd8acd60U, 0x3db4f4fa3d9ecfc6U, 0xbdd19539bdbc9a53U, 0x3e54dc113db8c00eU,
  0xbdc45724bd509b68U, 0x3d8d9b4abdedd389U, 0x3d4e0fb43d695b64U, 0x3e3a8831be19eb04U,
  0x3e1b4b013d698ce4U, 0xbe3920d93e0498f9U, 0x3e58064fbe55e2bdU, 0x3d635b3cbe1729faU,
  0x3c7216103bd19020U, 0x3de3a5b63e18521bU, 0x3d8a18e2bd0b9600U, 0x3d6b3bf4bcaa8740U,
  0x3e1755833e4c1637U, 0xbe46f50a3e4310f3U, 0x3e13693b3dccb232U, 0xbdb2584abdd5710fU,
  0xbdf91ddebcb80390U, 0x3c2650603e233257U, 0x3e3d5095bdb03bd6U, 0xbe14772abe239313U,
  0xbe574583be405bcdU, 0x3e112e053e1ee6f5U, 0xbe5010a2bdec6ef9U, 0xbb455440be2bf7b6U,
  0xbdea3798bdf1b16dU, 0x3d3e4d3cbe544f56U, 0x3e22c86dbe4be72aU, 0xbe4ce3013ddaddb6U,
  0x3e4cd2ab3e3640b7U, 0xbe22f2393d4c0d4cU, 0x3de8792a3e21cdd9U, 0x3dd5a3fe3d8ebac6U,
  0x3e2df37f3e110b9fU, 0x3e1284a13e42fdbbU, 0x3e3e757f3d38f41cU, 0xbe5a99f03e570b8fU,
  0xbdf9c2393d6176ecU, 0x3c466560be016622U, 0xbe5973353d0ad97cU, 0x3e3512133d8493c2U,
  0xbd2a50443d8dfda2U, 0x3d59cc1c3e25196bU, 0x3d2c3a44be306491U, 0x3e50c3b3bd9d2da6U,
  0xbd69bc143d8ea19aU, 0x3e3ca089be361c72U, 0xbe53a03fbe18eefeU, 0xbdeea3923d0d4364U,
  0x3d79453c3cdca9f8U, 0xbd905d86be4c668aU, 0xbe09fd6cbdc1fa0fU, 0x3d38f5fc3e23c485U,
  0xbde9bcc73d3ff5bcU, 0xbd6e5ffc3e4a9455U, 0x3e05146fbcb4d560U, 0x3d99e6663cf06ca8U,
  0xbe25df75bdbf9883U, 0xbe31ecc8bdddb8c4U, 0x3e4f2257be03a359U, 0xbd45803c3c1b0c50U,
  0xbdb878c6be449ce8U, 0x3e15d05b3e27d231U, 0x3e026735be0aa714U, 0xbc40fc20bd0e2330U,
  0xbe323e00be3ad486U, 0xbd148068bdbe95c9U, 0xbb814e20bdeeaa1eU, 0x3e1125c13e478047U,
  0x3c4efc30bd59d9a8U, 0xbe39e464be25c3c2U, 0x3e388605bd8f7322U, 0x3e3038a53bdec740U,
  0x3c3dab40be021b98U, 0x3cf8ee28be2d9686U, 0x3d9a9cce3decef0aU, 0xbdae2ab83dcb1daeU,
  0x3dd76cfabd87a120U, 0x3ddb70b6bdc37f03U, 0x3cf38300be01c6dfU, 0xbced40a0be59f1e3U,
  0xbd022d18bdf7d351U, 0x3d5d647cbe2f5113U, 0x3d00ed94bd545c78U, 0xbe3a05ca3c9a8ba0U,
  0xbde526353d220bccU, 0x3e31d4cd3e1c5019U, 0x3e06eb193e1cf66bU, 0x3d8e9f3a3cd6b898U,
  0x3e2eec83be0d6280U, 0xbdf682f2be53cec5U, 0xbcdebfc83db0a7daU, 0xbe07fcbc3db7ec86U,
  0xbddc13253e1febfbU, 0xbd9d47dabd97f1ceU, 0xbe2179bf3e4a2e6dU, 0xbe38426e3e11f233U,
  0x3d64605c3db797beU, 0xbc5b9400be4185cfU, 0xbdb16944bd807dc2U, 0x3e3cf0813c5a9e40U,
  0x3cbb48b0bd248bf8U, 0x3c03f8f03ab8c100U, 0xbe422d083d833bd6U, 0x3bc37de0be56ded2U,
  0xbd4d11f83dab753aU, 0xbd6332b43e55ecd3U, 0x3e1f514d3daf65daU, 0xbdd6b8183d09b26cU,
  0x3e26e8df3e102619U, 0x3e4cd2593c8ee3a0U, 0xbe0afba0bc40bc80U, 0xbd226bac3dc9461aU,
  0xbdb6e49c3dee69c2U, 0xbdd4529f3d4632f4U, 0x3c08f3103cf1a0d8U, 0xbc94d9903d6f1e84U,
  0x3e40a0993dfaa642U, 0x3e3a4df1bc82d710U, 0x3d7deccc3e1e8203U, 0xbd462230bdbe33f4U,
  0xbe4939f7be2623a8U, 0xbdde1c9a3e19faa5U, 0xbd372c403e2cfa27U, 0xbd5b978cbd8d31f4U,
  0xba2103003d0a7eecU, 0x3e0522593dcefc02U, 0xbe461883bcc50a68U, 0xbd3dcffcbd88ae74U,
  0x3e4342e53de3c16eU, 0xbe0a37c43e22c997U, 0x3dcbc55ebdb7ba5aU, 0x3e255a5dbda894e4U,
  0xbcb8e7883da17952U, 0xbd6a7d5c3d9bab66U, 0x3dbec7723db2f41eU, 0xbbb5f780bb5757c0U,
  0x3d4914ecbd93f344U, 0xbd13c8c0bbe1fe60U, 0xbdf0da8b3e3b1c61U, 0xbd158b083c2925f0U,
  0x3e1afb693e17de19U, 0x3d800ee6be11c6ffU, 0x3e0fa5773d998a2eU, 0x3e43de31be512789U,
  0x3e4ee9c13dda5dc6U, 0xbdb62b2c3e39dd99U, 0xbe1d0781bcefd050U, 0x3e0088953e13a7bfU,
  0xbe3f7b7c3d245fa4U, 0xbdc4b898bd395b44U, 0x3c8ff7903e0358a3U, 0xbe23d6c63e1e94cfU,
  0xbe588b493e01aa03U, 0x3db69df2bcec0708U, 0x3e0c39673dc5c1a2U, 0xbdf02ddb3e2cd41dU,
  0x3cecef00bba9be20U, 0x3dd131eebdf5fd7fU, 0x3dd0a8be3cc4b780U, 0xbe3e8ac2bd157a18U,
  0x3e37f03d3e3c1ee7U, 0x3cadb4a83e103109U, 0x3c9a85203e1bf3e7U, 0x3dfbe1d2bd9e4452U,
  0xbda40dc43e30ddc1U, 0x3dedc1c23e0c6affU, 0xbde8e215be537607U, 0x3e541429be381d9cU,
  0xbdb40e6abe4d2d09U, 0xbd5f5bb43cb5ed58U, 0xbe1536babe1b6c2cU, 0xbe01fed6be007572U,
  0xbd0740143dbef31aU, 0xbdb8e82abdbb8771U, 0x3c45ec503dfa65e6U, 0x3df373a6be0676abU,
  0xbd2dca883e4a03f3U, 0x3e0f76dd3e1e4495U, 0xbe16cc3f3e49847fU, 0xbc96c288be5843f6U,
  0x3e1d27413c9898e0U, 0xbceb12e83dca36e2U, 0xbd558734bd4f9840U, 0x3e56db693e3b87bdU,
  0x3d001294bdf14e14U, 0x3e0173ab3dec65beU, 0xbdb44ea43d9bb29aU, 0xbe18035e3e455c93U,
  0x3e44b0c9be17e7e2U, 0xbe07bc3ebe0afe93U, 0xbddd79cabd086608U, 0x3d2c9ffcbe4e8a76U,
  0xbc1aa1903dd22a2eU, 0x3df750c2bdde8a35U, 0x3e466f55be22d8adU, 0xbd909740bd3333ccU,
  0x3cc3ad30be0a8e88U, 0x3e446439bd722980U, 0xbe22984b3d351664U, 0xbd1841a43e538b01U,
  0x3e5920db3aed4e00U, 0x3e251411bd8e7168U, 0x3e2461bbbc1feea0U, 0x3d90c3c6bda11f00U,
  0xbe24dd99be1f58cdU, 0x3d947fbabc5ca570U, 0xbc9738683bafbe80U, 0x3da01bd23e12862fU,
  0xbd8c01d0bdd884dfU, 0xbe1331483e5556c1U, 0x3d93a37ebe447ac8U, 0x3d0f8bd4be0c2cd2U,
  0xbd0329ec3e0e23fbU, 0xbda4e336bdada6d0U, 0xbdd459fc3d51d4acU, 0x3e06c5ef3cd31b20U,
  0x3e3f53953e305577U, 0xbd1af220bca5af38U, 0xbe1a04eb3e43c95fU, 0xbc63a6f03d70c1f4U,
  0xbe165728bdae2b1aU, 0xbd6e0b48bcddb410U, 0xbe0f046ebe346759U, 0x3e1eba05be2ca6e1U,
  0x3e43bca7be498f06U, 0xbe3b929e3e157747U, 0xbe5cdf92be42e084U, 0x3e0d9f1f3e528fbfU,
  0xbe0986683e2c171fU, 0x3e1fc3f5bd0988ccU, 0x3dc4b5123e00ab51U, 0xbe4a15953cd664e8U,
  0xbe3c4bd03d62d234U, 0xbe36f312bd06df68U, 0x3e36c589be0352e4U, 0x3d91b43a3ccff7a8U,
  0x3e10549fbe51a3a2U, 0x3e5d3a773cc7dd18U, 0x3dcf42c23e2d3e15U, 0x3e3d686d3cbbc338U,
  0xbdef1320bd7c77dcU, 0x3b6ba140bc8234c8U, 0xbd98cbd2bcf613c8U, 0xbdea8bfabd89bee8U,
  0x3e4117fdbe025e8cU, 0x3e234faf3cdc6768U, 0xbe591b63be376c96U, 0x3ddf6c663e00bb25U,
  0x3da53f2ebc560cb0U, 0xbd8193f0bde2a923U, 0x3de05c8abd060274U, 0x3dab22bebdc9ae14U,
  0x3d4e3b8c3e3745cbU, 0x3dab12c63e38d661U, 0xbe5bb55c3dd7be02U, 0x3e0010a3be154d12U,
  0xbe0a70513c9eaaf8U, 0xbe46e0413d3e49ecU, 0x3cba16f8be193df3U, 0xbe1ebafebe38b7bcU,
  0xbe3acd5e3cf4bdb0U, 0xbce597883e04d287U, 0xbca6ec303d889a66U, 0x3e0955893e0c0c95U,
  0xbdb2ff46be532751U, 0xbe09dfb43d9c2f42U, 0xbd8bfdc23e4005dfU, 0x3dad975e3e35b0a7U,
  0x3e038f91bde6934aU, 0xbe448f9f3dac771eU, 0xbe2f39e5be540dc2U, 0xbd195a803d91520aU,
  0xbe3a6e4f3ba42020U, 0x3d8196ae3e2fb35fU, 0x3e1ace613d47e6bcU, 0xbe4fb3b33cf31bb8U,
  0xbbb83620bbe63200U, 0xbe2aeb5a3e0ed3b3U, 0x3c3d2150be331b03U, 0xbdea252abe265a6cU,
  0x3d65c8c43df04a7eU, 0x3e487b933e386d63U, 0x3e0a40edbe3c6cc6U, 0xbd4a0d343c3b7b20U,
  0x3e536f43bba43fc0U, 0xbdb7ff2c3db8b972U, 0xbdb1c25c3d81c532U, 0x3c912cd83d6195acU,
  0x3e094c93be08615aU, 0xbd3a94c43e405179U, 0xbe5279f33e40d399U, 0x3d2b7124bce61df8U,
  0xbde76c873e021eadU, 0x3dfa7f9e3e3eea33U, 0xbd9e93ba3e184081U, 0xbdffcace3e13303dU,
  0xbd09202c3e4aafcdU, 0xbd1cb354bcdfe348U, 0x3d6c9954be5bfee0U, 0x3e1d110f3c44d240U,
  0x3d3ce5acbcbdb778U, 0xba860d00bda2425eU, 0xbda3e338be5aae5fU, 0x3e48c219bde47281U,
  0x3d890fa6be132bdeU, 0xbd78e634bd0574ecU, 0xbc73e1503e15fb81U, 0x3dbad65e3e2c14f7U,
  0x3e5a7243be4dec9eU, 0x3e207f3f3af97100U, 0x3c842990bd725cecU, 0x3d2c05543e1dd209U,
  0x3cacd0283e4af05dU, 0xbe51799e3de6d4c2U, 0x3e235e873a2dc600U, 0xbdc91cb93df06272U,
  0xbd8f7e02bd269ab8U, 0x3cfa4d883ddc537aU, 0x3e1a41953e56ea55U, 0x3b49de40bda25594U,
  0xbe284b8cbddfc015U, 0xbe0fbd18bc6edeb0U, 0xbce07b98bdbd4626U, 0xbe32cb913e0ceb6dU,
  0x3e36da09bd6b57d0U, 0x3d008c44bdf042a3U, 0xbe10fc143e51502fU, 0xbdd0e2bebe1afe66U,
  0xbe2a6a7dbe560c11U, 0xbe1918a8bdb3a170U, 0x3e102be5be31464aU, 0xbe2b9946be4c06abU,
  0xbe13e2a73d5f8eccU, 0xbe258c74bdc37c1eU, 0xbd973f96be3a2b7dU, 0xbd863d3e3d4a9fccU,
  0x3e190173be1e3129U, 0x3df33d3a3dca710aU, 0x3d9d1f0abe05c56bU, 0x3defece6bdbdf8fbU,
  0x3e41eec5be3ac4aaU, 0x3c50d8f03dfb099aU, 0x3e45b5273e441113U, 0x3d7c3ecc3dbfeac2U,
  0x3d80686e3df38b1eU, 0xbe4f5fdbbe2d6274U, 0xbdfa3f8d3e48ba9bU, 0x3db6398abd765c4cU,
  0xbdb4207e3d033ea4U, 0xbd251b9c3e4f8a41U, 0x3e0a66813e2434f7U, 0x3d84529ebd170d10U,
  0xbc3dbef0be0f5d40U, 0xbe3ac6dfbe255c1bU, 0xbe3976b4be32a27cU, 0xbd69b324bdfdb285U,
  0xbc8448a03e05950bU, 0xbe594f5cbe172d10U, 0x3d94c97a3e596977U, 0xbdac7db0bda8969eU,
  0xbe422da83c421a90U, 0x3dfcafca3e29e5cdU, 0x3e48db1bbb479bc0U, 0x3e13c87b3e2f7a85U,
  0x3e57da9fbe4bec03U, 0x3c7cf3903d115994U, 0xbe2d43e63d20bb24U, 0xbdebad4fbe55de5bU,
  0x3d0e1f14bdd80cd9U, 0x3dbc551a3e510229U, 0xbe429b9dbdd23f43U, 0xbd00bc103d2d57bcU,
  0xbd66c6e83dadbe62U, 0x3d529d443d80001aU, 0x3baeab00bd2b92e8U, 0xbdd9add03e4afd45U,
  0x3d3315ec3e4900a5U, 0x3cb2f0183e3d7621U, 0xbd57716c3e3441c5U, 0x3e0ead993e4a06e7U,
  0x3e3d2d81be0dda80U, 0xbe3a318a3e0629b3U, 0xbe41a3673d41e364U, 0xbde293cfbe24d4dcU,
  0x3e2d57c3bde3531fU, 0x3e0c63ebbcd62d98U, 0xbd84b6b03ccc6eb0U, 0xbe483d963db6f77aU,
  0xbe1d72e43de91d76U, 0x3d511d243e2bc1bfU, 0xbe30389e3d54ee8cU, 0x39bb6a00bd8eadf2U,
  0xbd8e684abdb55af2U, 0xbd4d5a583ca45d28U, 0x3dc71e62be150e18U, 0x3e4a9cf13e352f7bU,
  0xbd967f703d95f4caU, 0xbdc473953d9a44deU, 0xbe48d9ddbdbe543dU, 0xbdfb4e903b41d740U,
  0x3ca250583def01feU, 0x3e4c96713e3aae83U, 0xbe30a044bdd1f0e3U, 0xbd7bd874be43b245U,
  0x3e2e5659bd1b8ed4U, 0x3e4de811be53a2d2U, 0x3e1c1f0f3e107d33U, 0xbe2bf925bdd112b2U,
  0x3b63fb40be388ee2U, 0x3dade90a3e08cd07U, 0xbe16bb88bd3710dcU, 0xbd32c310bcd50888U,
  0x3d804f123e1875bdU, 0x3d18e42cbdfca7ebU, 0xbdf5c071be2783dcU, 0x3e48753dbe2ec239U,
  0xbd472234be44f784U, 0xbe35fc60bcd9e3a0U, 0x3e2f5a47bcef2fb0U, 0xbc4e31503e367819U,
  0xbe03edbcbe4565c2U, 0xbe36f8eebe232240U, 0x3e433115bda8eec4U, 0x3d210f74bdb142f2U,
  0xbda8ae0ebe193adaU, 0xbe2c843cbd6870a8U, 0x3e106da5be592c5bU, 0xbddcb18cbd8ebb96U,
  0x3d8f67ca3e346dc3U, 0xbdcda6403e5075b7U, 0x3d15fa343c1e2da0U, 0x3c8e58b83b1d5b40U,
  0xbd026cd83d3e29d4U, 0x3e4ebb6f3d975482U, 0x3da19a7ebc637d60U, 0x3e1ea763be15a7b1U,
  0xbd83fbe0bdb80f02U, 0x3df9eb7e3db5c8d2U, 0x3e22248bbdb7b88aU, 0x3e2c3ac93d94064aU,
  0xbe21dd6fbd061a98U, 0x3d9ff8eabe43d1f9U, 0x3e3d889d3ca924f0U, 0x3e0239fd3d339074U,
  0x3e147661bdde305cU, 0xbe4e46553e50e05fU, 0x3dc6be963b88cc60U, 0xbd8df0663dd683aaU,
  0xbc497a503e1b702dU, 0x3e0b8093bd44a9b0U, 0xbd18b3943dfe21ceU, 0xbe544b703c499140U,
  0xbd9bfc523d19ffecU, 0xbd72e98cbd129550U, 0x3e2e3d6d3d97143aU, 0xbdfda1a2bdd81bfaU,
  0x3e306a0bbaae2700U, 0xbe210f22bd774744U, 0x3e39a827be1033f8U, 0xbcdb36e03e58e975U,
  0x3d1d3fe43d642564U, 0x3d588c04bcc93db0U, 0xbe47811e3d8872b2U, 0x3de8ba66bd8a8c3cU,
  0x3d1afd743b837e60U, 0x3e212089bbd92d20U, 0x3e2afd5d3e0b2f6dU, 0xbe21610dbd692fd4U,
  0xbd32edb4bd3629a0U, 0x3d4ad0543e1b1525U, 0x3e0893e53dedf572U, 0xbdcd6dd3bb13e240U,
  0x3e2578c5be1b23e2U, 0x3e4f4ff53de063d6U, 0x3e4fbe333c39ec90U, 0x3dbe8fa6bcc01af8U,
  0x3db265963d80652eU, 0xbdfb6acabd85c6deU, 0x3e4055cf3e5376c9U, 0x3e5b5defbd52ff5cU,
  0xbe2e4770be234591U, 0x3e260967be362ec5U, 0xbe3d14f63e272c15U, 0xbe5c9d8c3e3a608fU,
  0xbe3a1b2bbe341328U, 0x3e422725bd6210bcU, 0x3de285e6be1b90cdU, 0xbdbfb22b3c83fba8U,
  0xbde68367bd00b634U, 0xbe4f30dd3dc5291aU, 0x3de8e9e63d209864U, 0xbde1b8843e1e384bU,
  0x3e08e01bbd39920cU, 0x3d772f4c3dfb6802U, 0x3d5afeb4be54c57eU, 0xbe3149c03d06ba7cU,
  0x3dfcb0463d3ad45cU, 0x3db5084abe16c806U, 0xbd4c3654bcbc1548U, 0x3e0ca8cfbe4ff893U,
  0x3e452915be4d8180U, 0x3d8dce46bc9756d8U, 0xbd3fad54be593d9fU, 0xbe0a9074bdd679afU,
  0xbd24e92cbcbd29a8U, 0x3e0559193d30213cU, 0xbd4bb530bdcbb349U, 0xbe1e5ea4be2799dcU,
  0x3cdb42583d610a9cU, 0xbe34ecd63db9257eU, 0xbde0f75d3da66722U, 0x3c2ea500bde29e48U,
  0xbdee688b3a459700U, 0x3dfd65e6bcd8aff8U, 0x3dd35eae3ddf77b2U, 0xbdcb630b3dd5f28eU,
  0xbe0e0f7a3e562941U, 0xbde138ea3d192e2cU, 0xbd3c41743c3b66c0U, 0x3e032771bd3028f8U,
  0xbd1d28e4bc1343d0U, 0xbcbf7d083e4bb25dU, 0xbd6eb06cbbb7f0e0U, 0xbde3c02f3c30f2c0U,
  0x3dc00b9ebdecfe32U, 0x3e0aac05bd03d1c4U, 0xbd4ec448be27e9b6U, 0xbabb42003dd7b3e2U,
  0xbe002f6cbdb200f4U, 0x3c485b40be094facU, 0x3e51bb6dbd86bca0U, 0xbe1eac9c3ddb1722U,
  0xbe32d21ebc8d4a50U, 0xbdc31647be031f32U, 0xbd468a1cbd410254U, 0xbdeb0cbebe1a5838U,
  0xbc8813203de5356aU, 0xbe06ed01bcac1b78U, 0x3dfff9b6be562011U, 0x3e03f6493dbc3056U,
  0xbe5a5ca73e030267U, 0x3a35bb003e38058dU, 0x3d81aa06bda05468U, 0xbe2dd1103dee7796U,
  0x3d50da5c3dad1d4eU, 0xbd4b2d00bced0708U, 0x3d81475abc886ee8U, 0x3dcb41e2bdc17d0eU,
  0x3e4f6fd33d4de154U, 0xbdf85edabe322ea0U, 0x3ddec6e23e3bc949U, 0xbdcf6b973e1754b9U,
  0x3e3dc095be4c0037U, 0xbe0a148c3e5901f9U, 0x3b8d1440bd76cf50U, 0xbd676bfc3d8e75e6U,
  0x3e4b092bbe32e802U, 0xbd2a8b60bd0b3690U, 0x3e095eed3e4541afU, 0xbe5248693de6c1d6U,
  0x3dd8954ebd8f91beU, 0x3e1a81c93d51bf14U, 0x3d35e0843e5707f1U, 0x3e35d54dbe44e16bU,
  0xbbaeec003e35d059U, 0x3d041874bc032180U, 0xbe035954be4b3656U, 0x3a6b73003d91271eU,
  0xbe07fc3c3e1aaee1U, 0x3d73617cbe3f7bdaU, 0x3e0dee75bdc11628U, 0x3e40e939bd698038U,
  0xbd8980d8bdc24e2cU, 0x3de2bb063db984c2U, 0x3e3b953fbda6ad80U, 0x3cd41088bc9d85d0U,
  0x3e06afa33e5c3f69U, 0xbdf8b9f33e540b83U, 0xbe276ed43dc613aeU, 0xbdf02d3b3cf8b398U,
  0xbe34725dbc93d970U, 0x3d21b2e4be16c35bU, 0x3c0ffce03e443f9fU, 0x3bf8a400bd8a2d14U,
  0x3cbeb550bdc88585U, 0x3b1dbc40398de400U, 0x3d1384543e543693U, 0x3e058c77bdc99134U,
  0xbc846aa03d1a646cU, 0xbc9071c83cf2f9f0U, 0xbe153f36be2b5a29U, 0x3e2142b73bee2820U,
  0x3c8602d8bdbdd117U, 0x3e13ae833e2e400dU, 0xbe269475be077706U, 0xbc2f74d0bc61e130U,
  0x3df55adebdcc56f7U, 0x3d456bbc3e1562dbU, 0xbe1c7fcfbccb68b0U, 0x3c9c67483d5611a4U,
  0xbe4782713dcd1992U, 0xbe47584bbe38eb96U, 0xbcf750c03e4593a1U, 0xbda17e28be44562eU,
  0x3dd16a763d7cd65cU, 0xbca110f8be0e3eb4U, 0xbe114b39be0f01a0U, 0xbe215a95be40a219U,
  0xbe0f9c64bdf42e7fU, 0x3cab7dd83e4a2861U, 0xb9d2be003c03e8f0U, 0x3e30102bbe3e6f3cU,
  0xbdde865dbe0ce630U, 0x3d521724bdb25a1aU, 0x3e45cbe53da9b86aU, 0xbd8cc960be2eb30aU,
  0xbd4b01b4be0f0358U, 0xbe046bfcbd58fee0U, 0x3d8e7a86bca4f9b0U, 0x3dffcdc2bde5a27bU,
  0x3e4f60f33e3cabdfU, 0x3d84a16a3e0a2f9bU, 0xbe35abd6bdd8e2ddU, 0x3df957c23e4ac6c5U,
  0x3be5b8c03e299ac3U, 0xbe499d50bc686060U, 0xbe2c0f483d2b5484U, 0x3e01aa11be58ab9aU,
  0xbdce83553e4680d7U, 0x3d35fccc3d4d43c4U, 0x3dec04cebe011046U, 0xbe18c584bdcdc3ceU,
  0x3e4c4d4dbe46b7baU, 0x3d3fcc143de41a32U, 0xbb5256c03e197adbU, 0xbe2326093dbd96f6U,
  0x3e2622cbbc1621c0U, 0x3dc079a6bddd8b4dU, 0x3e333a493c7fe030U, 0xbe0fc4e03d013fccU,
  0xbe52f2fabd916dc2U, 0xbcd48b80bd472234U, 0xbd32e23cbdc78d29U, 0xbe055ec8be57eccaU,
  0x3d82054ebe03645fU, 0xbda696563e3ff6bfU, 0xbd4b87fcbe05f0c6U, 0x3e4508c9be1cbbf5U,
  0x3e170aafbc2bbbc0U, 0x3dbd37363dfa01faU, 0x3dcdec8ebdccc986U, 0xbc78ccb03dec415aU,
  0xbce30ac0be3a14b0U, 0xbd0706a43e578303U, 0xbe15f792be46a84cU, 0x3e1a2b453dfd8b0aU,
  0x3e22fcb93e5a7ea1U, 0xbd4165343c69a630U, 0x3d2114fcbdfdc04bU, 0x3e1788a3bd68b73cU,
  0x3ddcf1d23cc8b488U, 0xbe5385bd3d7096dcU, 0x3df71a0a3dbbb652U, 0x3d402884be3b94d3U,
  0xbe44cf5bbd0284fcU, 0x3e2a3fb3bd049738U, 0xbb92a4e0bd81e9acU, 0xbcc83798bdf17bb5U,
  0x3e3b53253db13beaU, 0x3c433220bdbe3340U, 0xbd4ad22c3e48a3dbU, 0x3d71c5c43d112ac4U,
  0x3d69d434bdfd91b8U, 0xbd087efc3c1331e0U, 0x3d1ead6cbddd73a5U, 0x3e3f4671bab00c00U,
  0x3d9c7d56be034184U, 0xbe1ceee03e00aee3U, 0x3e2944993e0ac3fbU, 0x3dbb1a5a3dd7a192U,
  0xbdcd778a3e0fd911U, 0x3e11ffc73df62502U, 0x3e58f9833df8beaeU, 0xbdc112653e0e770fU,
  0x3e55d4233d8547ceU, 0x3d279fc43da580c6U, 0xbd8aa3babd0de84cU, 0x3e5a5da1bc7a04e0U,
  0xbdf01787be4ab16aU, 0x3e529891be0669a0U, 0x3cc25c803e2e1369U, 0xbe30fcf23e2d081dU,
  0xbe3d9f02be01c384U, 0x3d16a674bcc2c358U, 0x3db7656ebe1fc54cU, 0xbd76591c3dc9ba1eU,
  0x3cedb150bd94441cU, 0x3db8997e3db76242U, 0x3ddfe42abdbcf72dU, 0xbe12d4ae3e2c5b8fU,
  0xbd17af483dcea76eU, 0xbe2c85d2bdf13094U, 0x3dc7d78e3d05cf78U, 0x3e089219be1c1a80U,
  0xbe42c2233d595e5cU, 0x3adc3f80bcd48d78U, 0x3e5919cdbe32ecfdU, 0x3e1fb621bd95ca8cU,
  0xbd0bf318bab09d80U, 0x3e48e9dfbe46b4d4U, 0xbde259debddeb034U, 0x3ddb2da63e5d6eedU,
  0x3daf6f523db5336eU, 0xbdaff1323e31c22fU, 0xbc811028bde7264cU, 0xbc6f70703dee8f46U,
  0xbd912b20bd41e948U, 0xbde1f74d3c969b90U, 0xbca6e1403dc6bab2U, 0x3d7e2e1cbe0a4345U,
  0xbded54f5bde24955U, 0x3d05beb03e1fb283U, 0x3dcdb066be5837e4U, 0xbdf69d403dd945faU,
  0x3e4c54a33d9279d2U, 0xbdea977a3dc4bd3eU, 0x3d1c1b04be57b41fU, 0xbdf19001be24d4faU,
  0x3c40a5903d3d023cU, 0x3dfbcf6a3c4294b0U, 0xbdbd9ab8bdf0c0c1U, 0xbcd672f83cc71030U,
  0xbe31a84c3e581fafU, 0x3cfab2a83e0209fdU, 0x3d847c26bc6811c0U, 0xbe55ad1d3e39a309U,
  0xbcf29690be2d6962U, 0x3da450f6be23fafcU, 0x3d704aa43d11460cU, 0x3dacbdc6bc5dacf0U,
  0x3c532e50be5b7c14U, 0x3dd96f2abe1f2bfcU, 0xbd1051a03dec8d1aU, 0x3cb8a8f8be234931U,
  0x3dc4c49e3cc86ae8U, 0x3e141f05be26b8e2U, 0x3e1d50c7be09342dU, 0x3e0a453bbd96d2a8U,
  0x3ddca9debd3394ccU, 0xbcd11dc83ba73880U, 0xbe3fc8a5bd0783c8U, 0x3daa6d5abdd66424U,
  0x3cb8b5f83e4eba67U, 0xbdb0e618be124a10U, 0x3e543cad3e53c1cbU, 0xbcf92e903e22c92fU,
  0xbda0b9d0bdf7ea97U, 0x3d5d11cc3e5d65afU, 0xbe0870a5be0aa03cU, 0xbd952e723df8e792U,
  0xbdd13f223e335bbfU, 0x3c85e088bcf033b0U, 0xbe5c69543d3d8bfcU, 0xbca587b83e2bb6ddU,
  0x3e582db7be0c0abeU, 0x3e3cbbebbdcfb217U, 0xbcb502f8be1af8beU, 0x3d8a6cc23d16d324U,
  0x3bd35ea03e51146bU, 0xbd7a1dccbdb1588aU, 0xbd41b7d0bc83c470U, 0x3d04fcc03cbc6050U,
  0x3dfb16923e1e1c95U, 0x3e535749be101a0eU, 0xbddecc4cbdbbadd1U, 0xbdf31ecf3df27372U,
  0x3d3434f4bb5ed6c0U, 0x3dff726abe4f91bcU, 0x3e3f3f753c92d470U, 0xbc2c31503e516759U,
  0xbdd7126ebb1d9000U, 0xbe50ec14be4b0fa9U, 0xbe1e3f4d3ce66aa0U, 0x3e2f0f4f3de0500eU,
  0x3d688f4c3d4bfaacU, 0xbdcc8b933c8cbee0U, 0xbe328d14bd3196d0U, 0x3c5e3630bd4ac54cU,
  0x3e30dec53da42b22U, 0xbe5130403e2bedf1U, 0xbe4c7a1f3d07cb74U, 0x3d757e1c3e368bf9U,
  0xbe14f20e3e172a85U, 0xbe2c516dbd9b0c54U, 0x3db4b5f6be256dafU, 0xbe1ff5acbe1da630U,
  0xbe1f297ebe052d29U, 0xbe3d319bbe4167b7U, 0x3e0e5ef73e11b1d5U, 0xbe195c843e54a1efU,
  0x3e313bbf3b9f1160U, 0xbe1d986ebdc552e2U, 0xbe5c4999be158310U, 0xbe3e71713d99eadaU,
  0x3c316ca03d98c842U, 0xbcef85503db6ce7eU, 0x3e2a61393e346a11U, 0x3e4e00e73e57a08bU,
  0xbd1275383cf74b00U, 0xbddeaeb1be3b18a8U, 0x3dd7cb9e3df7f7d2U, 0xbe48b1863d8883e2U,
  0xbd3a6d18be102a22U, 0xbda8ac983c111f70U, 0x3e0134c93d01a1b8U, 0x3da49a0a3bc2c9c0U,
  0x3e2cd4853e0f67cbU, 0xbc874e683e49272fU, 0x3d58e4bc3d3da2e4U, 0x3db0ce1e3e08b58fU,
  0xbe1c4cb7bde56d8bU, 0xbc8b94f8be30a2bbU, 0x3e41ac8fbda83ce0U, 0xbda4147a3de9ae22U,
  0x3e58e067be29b796U, 0xbe4e77f73d70fcf4U, 0x3e155ebd3ca803e8U, 0xbe4aa9b33b98cf40U,
  0x3b2ea580bdf9bc75U, 0xbd5e65f8bb926460U, 0xbb979ee03e0abd5bU, 0xbe17730abb92dcc0U,
  0xbda2f78e3deb6e46U, 0xbd7449dcbda8d85cU, 0x3e3b455bbe480efcU, 0xbc5aa7203d3b883cU,
  0x3d9d3f66bc47c370U, 0xbcdffcd83e30fe2bU, 0xbe06102ebe575179U, 0x3d836e763dcdc372U,
  0xbe106302bd9e1ea6U, 0x3e11a6853c421720U, 0x3cebacd8be2a0e34U, 0x3e3bf0a3bc1f3ce0U,
  0xbd9c5cdcbd85cf0aU, 0x3e07d6cdbe35aa6eU, 0xbd1b14d43d904716U, 0x3d7426f4bd4dd998U,
  0xbd8017983e458ac7U, 0xbdfe94033e16ea3fU, 0x3e2b91d9be31e4adU, 0xbd31563c3d2e6ff4U,
  0xbdcdd0113e294e59U, 0xbccc63683e598b77U, 0x3dd07606be45f910U, 0xbe17620ebe038fa2U,
  0x3da6b7e6bc855020U, 0x3dc709a23e01a30bU, 0x3dc84c5ebe48af78U, 0x3d7622a43d448b34U,
  0xbd709e543e24fac5U, 0x3e3e4481be22b408U, 0xbe0123f73d7fb984U, 0xbc951ef0be445d94U,
  0x3de8871abd15518cU, 0x3d47f59c3d4263d4U, 0xbe387d8cbe433bf6U, 0xbe4ea6503e178b91U,
  0xbdd21a82be14f5aeU, 0x3e187cefbdb5c59aU, 0xbdfcffd2bd88398cU, 0xbe2bde46bdff7341U,
  0x3d5f65fcbc6cee80U, 0xbe2a7ad93d03eda4U, 0xbe1ea7a8bdb15fe8U, 0x3d859f02bd9bc716U,
  0x3dcf38923cc9b900U, 0xbe2487863c56ca20U, 0xbdbd89d5bdcda9e1U, 0xbd68de34bdf4a625U,
  0x3dfb420ebb883a00U, 0xbd45400cbd8bbd82U, 0xbe31ff743dacc6a6U, 0x3d5a0a34be215410U,
  0xbd3b7504bc2e9d00U, 0xbe468a4d3ddb0392U, 0x3e3a75df3e0ca0d9U, 0xbe362eb43e0f150bU,
  0x3e564157bddb6204U, 0x3e2d90353e323ee5U, 0x3e0624893df0e4eeU, 0x3d3f63dc39dfca00U,
  0xbda4bc3ebe3752cfU, 0xbe0b714f3e216701U, 0xbe5900cf3dad5b42U, 0x3e24c7353e2f96bdU,
  0xbdf3bf443c9bc150U, 0xbd937866bdf68b86U, 0xbdd76f9c3e55a871U, 0x3d594914bc868870U,
  0x3e2ad5efbd561770U, 0xbe2bbcf8bd0044d0U, 0x3d932b0ebe218d34U, 0xbc65e8a0be38d9e3U,
  0xbd9020a23da8d28aU, 0x3e22bdf33d37bb74U, 0x3d45fa743e16ad03U, 0xbe2340c03d831ab6U,
  0xbd8e8716be581752U, 0xbe436ec33da32142U, 0xbd82a80abbca92e0U, 0xbdcade533cc248d0U,
  0xbd2e440cbdf9f651U, 0xbe171e6c3cac3478U, 0x3dd646423e16ae43U, 0x3e5c4f2dbc149cf0U,
  0xbe1c22583cf29208U, 0xbd0e0f8cbdafe82eU, 0xbd6ad0f03e5430f1U, 0x3def8c263e1bb583U,
  0xbde3bab83e227325U, 0x3c6458103da3737aU, 0x3df21cdebe5c2f94U, 0xb8a40000bd8fae9eU,
  0xbd8c1492be56030eU, 0xbe1e3990bd3363b4U, 0x3d20dc1cbd9943b6U, 0xbdec5513bd7ccfd0U,
  0x3e5807e53e3a1715U, 0xbdb214783dc11f16U, 0xbe1a1617be13133aU, 0x3e0a4ad93e4ac975U,
  0x3bbd5a00bd727da0U, 0x3e326a85be43d91bU, 0xbd52cb3cbdc47c68U, 0x3cd02ff8be3b506cU,
  0xbe34d586bdbb2df8U, 0xbe28ab6ebcc03d88U, 0x3e0294a5be5750d0U, 0xbe4f1fe83df15cd2U,
  0xbe3a63f83cea32b8U, 0x3d2c4af4be042daeU, 0x3e34092bbd8c0bb8U, 0xbe10bcfa3dcce03aU,
  0x3e5beb033e228999U, 0x3d2786ecbdea30f6U, 0x3e4b2699bdf1e9bfU, 0x3b2dd6803d73ad54U,
  0xbe5142c33db022ceU, 0xbe2a98823dc2c826U, 0xbde2b5273d913432U, 0x3d25f8d4be4843a9U,
  0xbd896012be0d9e42U, 0x3e3048c3bdffc79cU, 0xbe3221183d81f64aU, 0x3d4f9d8c3d50063cU,
  0x3e59d80bbdea43c5U, 0x3ca2fc20bc0563d0U, 0x3e0774ab3ddc5e86U, 0xbdf79fe53e003ad7U,
  0xbdee9a49bdd7254bU, 0x3df8e0cebe06bbf0U, 0x3e2df7a7bdca4572U, 0x3df2a72abc19bc10U,
  0x3df4e2debe3eab2eU, 0xbc22a3b03d2d0744U, 0xbd53afec3d3257d4U, 0x3e0da653bd812fceU,
  0xbe47d97a3e1b6b85U, 0x3e0542073e06507fU, 0xbe4e60383cb43488U, 0x3d7153fcbe3cb72cU,
  0x3d4d28543daba11aU, 0xbd0223743e24ea27U, 0xbe3c9d42bdd34b30U, 0x3e44d13d3c6a5670U,
  0xbd5b7b74bd68c9e8U, 0xbe31e538bd183a10U, 0x3e33e811be0a3df4U, 0x3deb9b82be46793cU,
  0xbdf8dbe3be523685U, 0xbbd072603dde8bfeU, 0x3e053b5fbe257083U, 0x3da1df223e3ea1cdU,
  0x3e4159993ccec870U, 0x3d23d81c3d7f005cU, 0xbe43d5403ce3a990U, 0xbdb98a623e0a1de1U,
  0x3d0f03d4be42eabbU, 0x3d5f02bc3d3ade0cU, 0xbe5156273d911b8aU, 0x3c2831f03e4df1e1U,
  0xbde99a623df9b232U, 0xbe5d2f763d83e3b6U, 0xbe262cab3e24cd11U, 0x3c84f7203ca64238U,
  0xbdb9b762bd8653f2U, 0x3dafb65e3d676a24U, 0x3db40c12bcf8dfe0U, 0x3dd56c463e03628fU,
  0x3e04e7e13e03ac9fU, 0x3e2557133cf0b830U, 0x3e42402d3e183bc3U, 0xbd63d9783dd2c48eU,
  0xbde6363f3d8bbbc6U, 0xbdbec0e6bdb59938U, 0xbdd143d8be3160d3U, 0x3be4db803c2f1f20U,
  0x3e1f40afbe2742deU, 0xbdae852a3dd780eeU, 0xbd8a49ae3e41be97U, 0xbd2a0950bde17f16U,
  0xbe146db43dd5c8c6U, 0x3b5106c0bdf1de84U, 0x3c95ba303e22f455U, 0x3e4900393e057947U,
  0x3dd0d7fe3e0bd91dU, 0x3e28df493e53385bU, 0xbe0d1015be5d1231U, 0xbe23b38dbd331478U,
  0x3d8744de3dc39d5aU, 0xbe447300bd3a48c4U, 0xbe168082be26fcb1U, 0xbe2b2ee6be27e78fU,
  0xbe536273be4ca203U, 0xbdde1fc53dbfde62U, 0x3dfe95dabdfb77baU, 0xbcb928d0be5649ebU,
  0xbdc3527ebd81d668U, 0xbdcbfdc4be3f05aeU, 0x3dc328e6bd919288U, 0x3e0c15fdbdacd320U,
  0x3dfbdedebc15c7b0U, 0x3e10b73d3e59665dU, 0x3d19e2a43d40f0d4U, 0x3dd622523cf6b3e0U,
  0xbd1ecf68be5389a3U, 0xbcd47340bd9ffddcU, 0xbd9bb49abe04fe50U, 0xbe14b56fbdeb2ebcU,
  0x3c5890903e4f873bU, 0xbcda31203dd0d072U, 0xbe3f26f13e1cd747U, 0xbddcf3bf3e121a87U,
  0x3e55a4e73e50935dU, 0x3dabcd96bcb149c8U, 0x3daf2502be0bfa88U, 0xbd9e954cbc9e0a50U,
  0xbe070238bc37c970U, 0xbda6132abd733f2cU, 0x3db07db63d832506U, 0x3d5e4f743e4eb5afU,
  0xbe5bdaa73d99c582U, 0xbd5e103cbc107f30U, 0xbc601ff03e42a4d7U, 0xbdba648abb638f00U,
  0xbe38d7583c9b8158U, 0x3d9397fa3d80384eU, 0x3e0df2f1be202540U, 0x3dc3f75e3d8958caU,
  0x3e2e64d73e2018d7U, 0xbe0773c43d91e8f2U, 0xbc97fc783c7a28e0U, 0x3da9a20e3e1cb367U,
  0xbe3f44b63e5689e5U, 0xbe2b2bae3d85c2ceU, 0x3d752ab4be06ffe1U, 0x3cb790283cea4158U,
  0x3db01582bd042f4cU, 0x3d70e1acbdafd166U, 0xbda00098bd07b62cU, 0xbce1b9a8bd287610U,
  0xbe352146bdfec335U, 0xbd504780bd0339fcU, 0x3e4731213e0947f5U, 0xbe12d0643e1edad9U,
  0x3df10f1a3c5a5d80U, 0xbd6b7954bd868394U, 0x3dd9118e3a28d600U, 0x3cf940a83cdb3a90U,
  0x3de85bf6bd8c59ccU, 0xbe1860813e3eeee5U, 0x3e094bdfbdb8bbe4U, 0xbe2aacac3de5707eU,
  0xbe4debce3e1a54d7U, 0x3ccfac88be51bf60U, 0x3a9a8680be4aa71aU, 0x3d80e7debe122869U,
  0x3e1c6bddbe0a704aU, 0x3c8115c8bdd67a48U, 0xbddaeb1abda637c8U, 0x3d9aa37abdc25fedU,
  0xbd3a4cac3dbb9bd2U, 0xbe1f49e0bd9db67cU, 0x3e5b55c9bdd7d1eeU, 0xbd95d6ac3d4621a4U,
  0xbe1f19683e44ff1fU, 0xbe0d196b3ca5e828U, 0x3dbac582bd305394U, 0xbdcf9a76be442470U,
  0xbe0387953d8ac5c6U, 0x3e1ff8ebbd9da70eU, 0x3d48b7543d000e94U, 0x3c77c5003e5bf995U,
  0xbd9fec22bdf884b7U, 0xbdfec28fbe03004aU, 0xbd014334bcd34098U, 0xbd98567a3db7dd5eU,
  0x3e1a3c19bd319838U, 0xbc98d7b03e302c1dU, 0x3dd73b8a3d8ea9c2U, 0x3e5c0c3f3e2d2b75U,
  0xbe0380383dafcda2U, 0x3d6a7cdc3dde2f6aU, 0xbe5320eebe04887bU, 0xbe5a9317bdc3ca08U,
  0x3da1fb6a3e22c197U, 0xbe5d9d6b3d34e594U, 0xbe467561bd94b8e2U, 0xbdb86ba6bdd4473aU,
  0x3dbaf7c23e2bebe5U, 0x3d3d7dc43d01da38U, 0xbe51e1e53df9b0b6U, 0xbe326a08be22d162U,
  0xbcbe1918bd75ee0cU, 0x3dfe7d02be4b2b14U, 0xbc3a47e03e269b01U, 0x3d3ca3bc3da0551eU,
  0xbd1c6ce8bd75b868U, 0xbe0ee594bd45a7d0U, 0xbe3b2c973e4c4e85U, 0x3dfd03f6bd3ae394U,
  0xbd6a8d70bdddde3fU, 0xbe450f133c62e9f0U, 0x3e0c38c1bdebf0acU, 0x3dc5c9123da1d47eU,
  0x3d6998243cc2db60U, 0x3e44eda7be087329U, 0x3dfd4bd2be3793b5U, 0xbe369c1bbd80ecb0U,
  0x3e0270dfbd86ab18U, 0x3dc99de6be0aece4U, 0x3d4bc0a4bd836682U, 0x3d60c8e43e2f79f7U,
  0xbd36c3d43e4f55edU, 0x3e0763e7bdbbf907U, 0x3d755f5cbd89b4f8U, 0xbe236f7cbe02686dU,
  0x3de60d52bd880d82U, 0x3d970ef6be53a5c5U, 0x3e4f5c07bd28c1bcU, 0xbe4a14ebbdd5d05aU,
  0xbe0fbdb8bb6417c0U, 0xbe0432c2be10544cU, 0x3e0f5471be2b7119U, 0xbdbba552bca27898U,
  0x3d950472be5732f6U, 0xbd18a4783d18e474U, 0xbd717b703e104539U, 0xbdc85961bda2a84aU,
  0xbe3104f5bd979dfcU, 0x3d84198a3b849e60U, 0x3df3a286be379825U, 0xbde8a9693e374ae5U,
  0xbd817d3c3cff0138U, 0xbe34743bbcdf9578U, 0xbc87cc50be317d30U, 0xbddbae48be38d144U,
  0xbd95214cbe016981U, 0xbe5c4d2f3d8d9e96U, 0x3e4b10573de114aeU, 0x3e22a283bda6233cU,
  0x3d8c64fabd4fbf0cU, 0xbe0b26e63e1cf223U, 0xbd74d3b83dede1caU, 0x3e09ef77bde1e76bU,
  0x3e170d213dcc3e42U, 0x3e031f39bde065bdU, 0xbe2996493e2ca3b7U, 0x3c0735803bc1b280U,
  0xbc798bb03e3b5adfU, 0x3e47d45dbd5cf22cU, 0xbdb2da763e1861c3U, 0x3df2ba0e3e5b546bU,
  0x3d9624f2bd4d7158U, 0x3cdcf9503d4126a4U, 0x3e119f673d87798eU, 0x3e01a8a53da99c0eU,
  0xbdd13f1bbe3c756cU, 0xbd8083023d9a4ec6U, 0xbd87bfbcbe50a93fU, 0x3e4d3e573cbc1758U,
  0x3c867d48bc5115d0U, 0xbe286f75bc15c250U, 0x3e45874bbdf8d9dbU, 0x3e0954df3ddd3396U,
  0x3d871bfabe177b58U, 0xbe3a4e663df11f42U, 0x3e54c9873dd63c0eU, 0xbdc4cc00bca5dc28U,
  0xbd9b17aabc7be600U, 0x3dd87d1a3e3563b3U, 0x3d108c143e19e831U, 0x3cb3f308bd64fb0cU,
  0xbe1960bdbdebbee7U, 0x3d2f40543dfdf36aU, 0xbe0d967ebdec8300U, 0xbdd605493dfe4cc6U,
  0xbe01a0bebc90f070U, 0xbe15e2b83cd70d70U, 0x3ddfc002bdda88baU, 0x3e2655093ccc5ba0U,
  0xbe0b01643e1a004dU, 0x3d63170c3e3edec3U, 0x3e1bdda5be3d996fU, 0x3e080b0fbe4657aaU,
  0x3de924323e22be27U, 0x3e5c5add3da3a19aU, 0xbe0873983ce7f8e0U, 0xbcbd5d80bdb700b2U,
  0x3e13392fbe381549U, 0xbd9f8aa0bdb0027eU, 0x3e1279353e46a77dU, 0xbccda6c83df9ac52U,
  0xbd1583903e0deec3U, 0xbc4d0e90be4dd408U, 0xbc2e0fa03d28bc0cU, 0xbd9d0d1ebd657a68U,
  0xbe2fdb013ce0a7e0U, 0xbe2873203dee8d2aU, 0xbc7848a03d9fd962U, 0x3da30e1a3e5418adU,
  0xbb1ff7c03c4d7be0U, 0xbdc61baabde97a1fU, 0x3d2754ecbe2f8791U, 0xbc8ab5c0bde5ae17U,
  0x3df21a363cc02cf8U, 0x3e1fb0d93de9404aU, 0x3c8b3f003e15126dU, 0xbdcbb0da3dbd6802U,
  0x3e551cfd3de4487aU, 0x3e3f6fa13e2e3d35U, 0x3d41b6843cd70900U, 0x3df7fcf23e32feebU,
  0xbd254698be09fe42U, 0xbe44f1c7be429b0fU, 0x3ca355c03e1590e7U, 0x3da5239e3e46a6bbU,
  0x3e51a1fb3e12e361U, 0x3d3ce93cbdf33b6aU, 0x3dd4160e3d743584U, 0x3dce829a3c618940U,
  0x3e489e7f3dc3d846U, 0xbb4c6000be442593U, 0x3c7216503dab17daU, 0xbe0419c7be2afa69U,
  0x3e55a62b3d85126aU, 0xbdca60e3bdaab4e2U, 0xbe2a447e3e3b2819U, 0x3db4a40ebd9bb426U,
  0x3e0cbc3dbe2a1c77U, 0x3e3c2743bd0b8554U, 0xbdac20d63e230b4dU, 0xbe0ef620bd430218U,
  0x3cb93ba83e3b2cafU, 0xbadb9780bdc9cf88U, 0xbd8784a0bdeca2b8U, 0x3d22a9b43cc3a8f8U,
  0x3e057969be3b81efU, 0xbe59d9993e0ac977U, 0xbe4351463e519d85U, 0x3e3a7a3bbda22f4aU,
  0x3e40817d3e4d26a3U, 0x3e5a436b3d46490cU, 0xbe1a2356be4da31dU, 0x3e55514d3dcc49deU,
  0x3db24aae3d452474U, 0xbbb42d003dd3ab96U, 0xbe403960bdc5c641U, 0xbd062490be218068U,
  0x3e39637bbde94a77U, 0xbe066da4be5d7411U, 0xbe3d95413dcb55b2U, 0xbda6b37cbad53980U,
  0xbe327b4cbe1ce2e4U, 0x3e53bb65be3ac2a0U, 0xbe363a5e3e00059fU, 0x3c60dd60be5a0c05U,
  0xbda52be83cdc33f8U, 0x3bab6d60be1055d0U, 0xbe4d8aa6bdb29f10U, 0xbc3aac20be271987U,
  0x3e14b80b3d7dd224U, 0x3e09789f3e1ccff1U, 0x3e37f97bbd31d0e4U, 0xbdb155063d1e848cU,
  0xbe0d3a963cd0f308U, 0xbe0717053d7d7a6cU, 0x3e09f283bd8ede0aU, 0xbd3492003d8059e6U,
  0x3dc5f406be5b044fU, 0x3d1c6b3cbe4498cfU, 0xbd89b2143e4b3101U, 0x3d96f2f23dccb972U,
  0xbc4b4b60bd861e1eU, 0x3e580cff3e221683U, 0xbdd525953dc039feU, 0xbe209841bd460e0cU,
  0xbda30c80bdaca3eeU, 0x3e09c481bddf8dfdU, 0x3b473080bd894c1aU, 0x3dd7752abe41fb96U,
  0xbe4506333e18b01dU, 0x3e3e0525bd9fe06aU, 0x3e37293dbd6fa730U, 0x3e07d699be0266abU,
  0x3ccad8103e21bcc1U, 0xbd4a5dcc3da38772U, 0x3d8baf9e3cece2c8U, 0x3d912062ba11d800U,
  0x3e088bc93e214175U, 0x3e5b5d2f3d406aecU, 0xbd8f931ebcac62e8U, 0x3da536ca3e06a0cfU,
  0x3e077e5dbd9d9298U, 0xbe4fa9333e487ae5U, 0xbcc271a03e3d66efU, 0xbe4c4915be41fab5U,
  0x3ca42e28bbb5a840U, 0xbe22e651be347368U, 0xbdd2f790be09b4eaU, 0xbd6c82d0bdf05b22U,
  0xbe1232773e4a1407U, 0xbe10ccd63dfb4686U, 0x3ba9c120bda47512U, 0x3caffde0be3da9f8U,
  0x3e18e2e93e26ca07U, 0xbdbfa094bcd83a30U, 0x3e24f89fbe4be04bU, 0xbe34ddbc3e42fc4fU,
  0x3e36e8fdbdb55cecU, 0xbc166c70bd412c60U, 0x3dac68e2be1d3cc0U, 0xb9d43a00bcd32390U,
  0xbc9d6650bdea9f31U, 0xbdae428abe58140fU, 0x3e371cdbbd4eb3d4U, 0xbe5ba459be0377b9U,
  0x3b07ca403dd9f20aU, 0xbd9036ccbdfbc419U, 0x3de46506bc959640U, 0x3cca2a383daa748eU,
  0xbdf2c5d33e07c6afU, 0xbe54ef74bdacabfeU, 0xbdf251febe424622U, 0x3e300b9dbd24db40U,
  0xbe4aa613bde651a2U, 0xbe489abd3c49c7d0U, 0xbdcdecffbe330a23U, 0x3d6a8a643de92996U,
  0xbd8e0744bd9d0b80U, 0xbda3b5babdd93cfcU, 0xbe2fb8dd3db54266U, 0x3e180003bdf628b7U,
  0x3d2070543d6a54ecU, 0x3da3599a3d9c9f2aU, 0x3e0703353e394dddU, 0x3e396c6fbd11c55cU,
  0x3e5372473bdbb780U, 0x3da2565ebd5b2364U, 0x3cabfcf0be10cc26U, 0x3deef3cabc07c2e0U,
  0x3d98e1563dee9dc2U, 0xbd9fcf2c3e4afb09U, 0x3e4d8dc3be354f33U, 0x3e363c3b3d3ed6fcU,
  0x3cc421e0bc608db0U, 0xbc9ca9d8bda81f38U, 0xbe5599fbbdb586c2U, 0x3d0b7124bd76e514U,
  0xbd3c9aec3e56de97U, 0x3e1a39a73ba14760U, 0xbe1f5019be15b09cU, 0xbd46a818bc436de0U,
  0xbdc3bcf6bdcfc7c4U, 0xbd9ecb80bda90bd4U, 0xbe3e5b96bded812eU, 0xbdc2b124be44e488U,
  0xbd0753f03e1c2171U, 0xbc4941203e4a4d7fU, 0x3d8109c6bdfadb23U, 0xbe519d70bdc32391U,
  0x3e1f0d673d51fb74U, 0xbe5614f8bcbe1878U, 0xbe1205c5bd89d032U, 0xbd3b3600be0ff219U,
  0xbd8212003d53bc94U, 0x3d8d6ec23dd01182U, 0xbe3e33e3bdcb88a2U, 0x3e46a61b3daa4e66U,
  0x3d37fedc3c2fffa0U, 0xbe53e4bf3c38aeb0U, 0x3d34b4943dcbf552U, 0x3db0c3ce3e1c9203U,
  0x3e09bcc7bd564aa8U, 0x3d1e88c4bd9459d6U, 0xbc373ee03d8bd49eU, 0xbe2fd14a3dedc52aU,
  0x3e38f8df3e16b351U, 0x3e30e417be50dd3fU, 0xbdc136cc3dce87b6U, 0xbd26717c3daf60aeU,
  0x3933ec003dd61a36U, 0x3d1b0cec3db24be6U, 0xbdd9e2bf3e255579U, 0x3e2ea6e33e0d3b5fU,
  0x3d6ec3b43ce52038U, 0x3d6c36d43cea0560U, 0xbe327238bd216ab8U, 0xbe1cbacebcd0ab40U,
  0x3ce020083d93012eU, 0xbe599e5c3d77a414U, 0xbdbb7162bd8acb20U, 0x3c385bd0bdde55a0U,
  0x3d314cec3e40cf25U, 0x3ba45fc03e0258c5U, 0x3c4ff980be37ee6cU, 0x3db114aa3d65022cU,
  0x3d30f5143da175c6U, 0xbddabb7f3e5b304dU, 0xbe4f7a30bbc66c40U, 0xbe06c99abe59bb77U,
  0x3daa6d923da71752U, 0x3e47028b3db764aaU, 0xbe5172423e023925U, 0x3de81a06be3f340aU,
  0x3d8e15e2be0f9e5dU, 0x3e470ab13e5d02a9U, 0xbd870b923d2170f4U, 0x3daed97239cc7000U,
  0x3d2293fc3d033d68U, 0xbe5b256c3d92fa3aU, 0xbe5cd41cbdd703faU, 0xbd858ffc3e397661U,
  0x3dc41a923e3bc10fU, 0x3dbf879ebe3f7551U, 0x3d74d9ac3ddb698aU, 0xbe195e5cbd470b0cU,
  0xbe485bbcbdc374d6U, 0xbdc878e83c63dce0U, 0x3e59da17be102c3aU, 0xbc0d7c00bd805cbcU,
  0xbe42f866be494a37U, 0x3d48c4743db89ad2U, 0xbdc76b8c3e5ae461U, 0xbe12afd63e223671U,
  0x3e48f3bf3e1dbf89U, 0xbe45e9ec3cadcec0U, 0x3e4e1e7b3e29f161U, 0xbd7933443d0efb0cU,
  0xbe5b92183cb32098U, 0xbdbbc169be2fda2eU, 0x3d1a90343dc15452U, 0x3e1b1277be1b6cd8U,
  0x3e1e2865be2a35d3U, 0x3e229aefbc7602e0U, 0x3d1b7a0cbe50a8adU, 0xbe3c4ce5be4deb93U,
  0xbd1cef583dfcb14aU, 0x3dd1bed2bdad78a6U, 0x3e2db0e93e0c18bfU, 0xbcea10183d9c3aeaU,
  0xbe39105a3c503fe0U, 0xbd8e1bce3e31e7e1U, 0xbb352a40bba85da0U, 0xbdb6d658be28d2f2U,
  0xbe3a92d13d86283eU, 0xbe3987a2bde94614U, 0xbd8bee84bc8ef178U, 0x3e1f301fbd1c3e4cU,
  0xbd781080be384375U, 0x3e06c73dbdc3c8ecU, 0x3cf3cd783d9c4d16U, 0xbe3ca7993e1a8c21U,
  0xbce74980be271c81U, 0xbd9e81f2be415b5cU, 0x3e2fcc89bd5f0ca0U, 0x3d37b504bd88dadeU,
  0xbbf104e0be38b23aU, 0xbd8b8c08be5a89acU, 0xbddc87b53cc04500U, 0x3deb04a63d0a3ff4U,
  0x3e53744f3c970e88U, 0xbdbb187cbd9dc9f0U, 0x3e47c3b93cfc1a98U, 0xbe5c9bf4bd8ec7bcU,
  0x3da98c4e3e178f33U, 0xbd5fc0543e352c15U, 0xbd41b3283e298f63U, 0xbbd5a9c03de0312eU,
  0xbcbf4510bda5edc2U, 0x3e58547bbd9ec980U, 0xbe38c6ff3d89f64eU, 0x3ddcfb963e21d8d5U,
  0xbdc62b17be4c07e3U, 0x3ddeabc63e3e446fU, 0x3c7e6170bdb4f522U, 0xbd7f2b38be18e806U,
  0xbdd4d8a4bdc11945U, 0x3ca022f03db9c7e6U, 0x3cb73ef8be084de5U, 0xbd796ba0be17192cU,
  0xbe52788ebd42ba34U, 0xbe0f4716bba54d80U, 0x3d9fbe1a3e54bf3dU, 0x3e3980a7bdd34751U,
  0x3e4172ad3e165c9bU, 0xbe0d1dd8bc31c4c0U, 0x3cf239403e36f979U, 0xbe15871f3db7a46eU,
  0xbe0c646ebe0c6680U, 0x3d54e2dcbd2c74bcU, 0xbde98a8d3cd6fe18U, 0x3e123ca1bcde88a8U,
  0xbc6788103e22c051U, 0xbd7ab8c43d7b1464U, 0xbdd44224bdceca74U, 0x3e40d383be156420U,
  0xbdaabff43d2d21d4U, 0xbe05f93bbe052ff2U, 0xbd265f9c3ce1a1b8U, 0xbca565b8bdba637cU,
  0x3d184ae43e53ac7fU, 0x3dd2a8eabcc35ab0U, 0xbdbbfcb5bdc55fd8U, 0xbd4f142c3da24d9aU,
  0xbdb5e6d6be588532U, 0xbe54ef403e109897U, 0x3e08b145bb8ce2e0U, 0xbd9881b23e133705U,
  0x3e0f3b153e2e9307U, 0x3d93fd56bddf0bf3U, 0x3cabd408bd7c317cU, 0x3df2b69ebe01afe8U,
  0x3d5556dc3d492f64U, 0x3e2913233e0f6fa7U, 0xbe281e003c5025b0U, 0xbdeca1bf3e5b6937U,
  0x3dac61aebdc06237U, 0x3e106ad13e4098edU, 0x3e30210fbe2dd23aU, 0x3bccb4e0be1c571bU,
  0xbe3fb7983d21a584U, 0x3d8511ce3b555a80U, 0x3dc157763e343417U, 0x3d03c3f43dfa90b6U,
  0x3c6c28903ce4c8c0U, 0xbda7bf32be4338ccU, 0xbd4a6c78bd9481e4U, 0xbe4e140c3e21ae09U,
  0xbdc7e81f3e04ee17U, 0x3e0dc7c7be015e9cU, 0xbd8110d8be4781fcU, 0x3e148a4fbd9e157aU,
  0x3d4b3eec3db6273eU, 0xbe1a9816bd35f510U, 0xbe2951583e00b243U, 0xbdcb8fa5bda0ccfaU,
  0xbc7abd203d4a25d4U, 0xbd946094bbe8f280U, 0x3e086c39be565233U, 0xbdde019fbe43aaa0U,
  0x3c25e7a03e5ad227U, 0x3cbc6f583dd73842U, 0xbd8a0c1e3e38f4c3U, 0xbe12b22dbe456186U,
  0xbd1ad2d8be2df754U, 0x3c7d20903e17d319U, 0xbde0d6c1be46d224U, 0xbe186d2cbd3e27d4U,
  0xbd848cccbbcdbf40U, 0xbc9066f03dc0faaaU, 0xbddcaa6ebe43405cU, 0x3da680bebdd20bbcU,
  0xbe12366ebe53b540U, 0xbd4f9eb03e49ffb7U, 0xbc14c9203e4f27adU, 0xbe2d46b0bc7d4520U,
  0x3e315b693dd5d55aU, 0x3d3b8e54bd568c94U, 0xbe131ce63df140faU, 0x3c1a3a50be1bb567U,
  0x3d4226ec3e55a8b3U, 0xbd3baa60bda6fdf6U, 0xbe42f9af3e15fea1U, 0x3df56fc63dfcc25aU,
  0x3dc6ba4a3d578174U, 0xbe2fc599bbf0b2a0U, 0x3dec17d63e2aef55U, 0xbc97de403e2de481U,
  0x3e26f137bd926a72U, 0x3d9f340ebdec0fbdU, 0xbda3a1303e4a6931U, 0x3d0d3ddc3d71b0b4U,
  0xbe266a36be0800f1U, 0x3d8a0e563dd91856U, 0xbd27bf8cbc8a23d0U, 0x3c86ef40be3ef8f9U,
  0x3db03f523e079a99U, 0x3d70f604be42bfb0U, 0x3e0abd9bbdff8cd4U, 0x3d176524bd0056a0U,
  0x3a1f9b003df960deU, 0xbdaa95bcbe11020eU, 0x3e3db60b3d1b2eb4U, 0xbd9b9cb6be065a66U,
  0xbe314e073e04b901U, 0xbd8567a8bdc7e6afU, 0xbde0c6b5bde6a7dbU, 0x3d3f7f24bd293914U,
  0x3e2d66313d958d1eU, 0xbe02b57abe0e8e60U, 0xbe583bf7bd1c4170U, 0xbd4195ecbdc57578U,
  0x3e2517793e35a51fU, 0xbe34d0153db34ea6U, 0x3dab9d26bdbf102bU, 0x3e569173be52b4c9U,
  0xbe3277323e0565b9U, 0x3e054bff3e499755U, 0x3e1bf02f3e1d55e5U, 0x3cb37ec8bdf0a109U,
  0xbd9ba0723e238797U, 0x3e5a11613e200e95U, 0x3dd51e063c9337e8U, 0xbdef46e5be386074U,
  0x3dc17b36be1379a6U, 0xbdf361afbe47d121U, 0xbe1a02d63c92b388U, 0xbe49d69bbdd49c05U,
  0xbe115ed83cac03c8U, 0x3d85a362be251b40U, 0x3ceeab303e12a879U, 0x3e4fc5a5be291e76U,
  0xbd5d6648be0b71baU, 0xbe3e1aa2bda53b70U, 0xbe3a67343ca12e70U, 0xbe3120a1bdc45d95U,
  0x3b084440bddbf6c2U, 0x3da481fa3da2141eU, 0xbdaf4a0ebe1e7d8cU, 0xbe59df0abc6b79a0U,
  0x3d3cdeacbd0ceb34U, 0x3e0952373cf78498U, 0xbc1b08703e41dcd7U, 0xbd0b6fc8bdb9f494U,
  0xbda09402bd210428U, 0xbda68f4e3e455d01U, 0xbe1cfcd0be1e0efeU, 0x3e3e3ba73e345f95U,
  0x3d6efd4cbdff19b4U, 0x3e04c68d3e0d611fU, 0xbe195a3bbdc96eeaU, 0xb95388003c8d77a8U,
  0xbe3cad023dd4e8beU, 0x3cddd948bb60ca80U, 0xbd71cd98bd844ee0U, 0xbe39084a3d6879c4U,
  0x3e2ed1d73e56015dU, 0xbe3cd5babe35c1fdU, 0x3e0a19d3bdc04ce3U, 0xbda2e3f6bb1f9dc0U,
  0x3d38b6e4be49f1eaU, 0x3d276fd4be379e8fU, 0x3e42ace5bdd31ddbU, 0x3e4af3353dc5218aU,
  0xbe5ccc963de9ccfeU, 0xbe14f2e83de2b9eaU, 0x3db0c79ebe029bfcU, 0x3ad81980bd9097a8U,
  0xbd3e286c3d94775eU, 0xbdc275bdbe0e3534U, 0x3e5367f9be5349a2U, 0xbc8b02f0be23086aU,
  0x3e3f869bbe46ed18U, 0xbb612640bdb48594U, 0xbdda17df3d0408a4U, 0x3e34bb3fbdd4bcd8U,
  0xbc82f388bcbafe30U, 0x3d986ec6be28894eU, 0xbe36ae933e497c0dU, 0x3d7f6e7c3e52cb4dU,
  0xbe169ed9be018453U, 0x3df690823e424589U, 0xbdb3e6b03e31ab57U, 0x3e0413f13c5a3620U,
  0xbd90525a3e38fa63U, 0x3d860336bdf1fc26U, 0x3e4f4021bcbd27d0U, 0x3e59e05dbdb65996U,
  0xbe50c3ea3d2d822cU, 0xbda1a474bdd35af7U, 0x3d5abe743e3d76b3U, 0xbe5c8e5e3debc212U,
  0xbd6cf7583e01b999U, 0x3e323a19be593c3dU, 0xbc2dd0303ddba566U, 0x3da8085ebdcdfc7aU,
  0xbde067bdbe55d0beU, 0xbe5a40f83de137beU, 0xbe54c51a3e1fdad3U, 0x3d3f160cbd9fef2aU,
  0x3dd6ce6a3e321811U, 0x3df7b7923e5cd263U, 0x3e439889bdef4515U, 0x3de88c96be09bc97U,
  0xbe18f06abe1e6186U, 0x3e1d1f2f3d19612cU, 0xbe3d763a3d6d010cU, 0x3e3267eb3ca988e0U,
  0x3e3b53af3c5e8d70U, 0x3e2d3415be248b49U, 0xbdbd48cd3d42ef24U, 0xbe562d8ebe460144U,
  0xbd8e7492be40497eU, 0xbd67e6a43c68f280U, 0x3e5435f93d89f16eU, 0xb9c034003d442014U,
  0xbe516648be51e794U, 0xbdfefda3bdd1786dU, 0x3de613623d5ceddcU, 0xbe42d0b93cae5e50U,
  0x3af2d7003e58bc1fU, 0x3a0cbe003e4a7d9dU, 0xbda61e5e3d79fcccU, 0x3e03259d3d3f1cf4U,
  0x3e1abda13cf4a008U, 0x3de9d2523e0f1db5U, 0xbe4f6924bdf0f310U, 0xbe540401bd14864cU,
  0xbdbc75c3bdfac2f9U, 0x3e25cb793dd28adaU, 0x3dc37f9a3c1558a0U, 0x3e1cf2b1bd0bf50cU,
  0xbde50e18bdba6ca2U, 0x3e356fc53dfeb366U, 0x3db78dba3e04f183U, 0xbbd9b1203d31cc8cU,
  0xbe481bccbe258e18U, 0x3e2a912dbdba0c8eU, 0x3e56065fbe5384b3U, 0xbe3586233cc0f590U,
  0xbe5b3108bc89a3f8U, 0x3dd5d1babdec675fU, 0xbdc39f2a3c08f460U, 0xbda1173cbe3f9741U,
  0x3a01be003cc71430U, 0xbe4a692b3cb66160U, 0x3e35dcbdbe4f114bU, 0x3de37cd2be4d1989U,
  0xbe344a3abda5e078U, 0xbe4cfd263e511f11U, 0x3e0a84b53e2afdffU, 0x3d1ed90c3d7ad26cU,
  0x3e1f714bbb7c0600U, 0xbdb70598be26c1d4U, 0x3e4e811dbdd44309U, 0x3dd71a163e2c0dddU,
  0x3d8b58d6be33d3d0U, 0xbdb0743cbde0e897U, 0x3d814ed2bdb98814U, 0xbe247ce33e02d719U,
  0x3d188e8cbe32d01aU, 0xbca668f83dc0d85aU, 0x3e3020b93bc4ec40U, 0x3e285287be4013deU,
  0xbc99a1b03d8a7dceU, 0xbe49eaba3dc9ef06U, 0x3e48f0dd3cde70a0U, 0xbe1745b1bd265b9cU,
  0xbe14dcbb3d29f214U, 0xbbea8920be4b5fe7U, 0x3d76349c3e196543U, 0xbc0891403d104a0cU,
  0xbce33838bd5151dcU, 0x3e2f4dcdbd1c7860U, 0x3d2ca164ba847600U, 0xbd534aecbe44cae7U,
  0x3e49720bbd8457c0U, 0x3b8a5880bd9c44beU, 0xbd63ed1cbbdfbcc0U, 0x3c8d37783e45d81dU,
  0xbda8d5683cbc97b8U, 0xbe3438b4be2e3972U, 0x3d4543d4bcd1de10U, 0x3de98d7a3e3591e3U,
  0x3dd14d5e3dfc1512U, 0xbe49f76c3e360aafU, 0xbe0e358bbddd9b44U, 0xbe1612fc3d2f6decU,
  0xbe0380f03e416fe9U, 0xbcae8608bc7121e0U, 0x3d914762bde938bdU, 0x3da60cee3ca13120U,
  0x3d8055febe289953U, 0xbe49881cbd84170cU, 0x3e4c58413d40879cU, 0xbd9a904cbcf31360U,
  0x3e029893bdc42242U, 0xbe31f9fdbd76d0e4U, 0xbd6debacbe3dd0f8U, 0x3de0c5de3e5a9cebU,
  0x3e364d0bbe27be1dU, 0x3dcf0c06bd81398cU, 0x3dee3966bad16e00U, 0x3d6b8444be553c20U,
  0xbd76010c3e17e209U, 0xbe4d2c82be442b00U, 0x3d73673cbd14921cU, 0x3d13e1b43e32552dU,
  0xbe436fe2bded062dU, 0x3d9e8e2ebd4c7cb0U, 0xbe2a04d4bd861aa0U, 0xbe4ba49b3bdcdf40U,
  0x3e4126e53e3dea27U, 0x3cbed830be57e4a8U, 0xbcfa5a183d65b234U, 0x3d65e48c3c8e6018U,
  0x3c87cdd83c0861a0U, 0x3e4e6d0bbcaa5c60U, 0x3e030785be295321U, 0xbe0f14dbbde06e8fU,
  0x3e09c4cdbcebabf8U, 0xbe12af30be1106ceU, 0xbe2f06193d927a76U, 0x3dc404f2bdf78458U,
  0x3dc1534a3d4d75bcU, 0xbe372fb93d879c56U, 0x3df29292bde3f102U, 0x3d8378a6be383014U,
  0x3d3020ccbdf77ffdU, 0x3e566d4b3e194445U, 0x3e0e9af3bd95a642U, 0x3dc1b8ae3df2274aU,
  0x3de1116e3c133a10U, 0xbd2314283d331bfcU, 0xbbdebea03dad77f6U, 0x3dc33e0abe32354cU,
  0xbdea67403d947e6eU, 0xbe23fc6bbe3a1b9eU, 0x3e3a80213e5c52b7U, 0x3da5200e3d8ee37aU,
  0x3d683c8c3dba5de2U, 0xbd0c91d83e595651U, 0xbe453e4d3d17b704U, 0x3dedfe063d9f2cc6U,
  0xbd2d08c4bd940822U, 0xbd7e34f03d168454U, 0xbdb3f55c3dbfbe2aU, 0x3e4b684bbdbbedc4U,
  0x3e4fac153d129c9cU, 0xbe0f2f1e3d121cacU, 0x3e547b9fbd3c419cU, 0x3bdebaa0be2e0745U,
  0xbdf9d702bdce6867U, 0xbd573dbc3e470173U, 0x3ce6f8003d423b2cU, 0x3ca9d8703d1b2634U,
  0xbd86b80e3e2b6f91U, 0xbe4150d83deb88eaU, 0x3c3821203d5af674U, 0xbd80f30cbdb23cbeU,
  0xbd7d35a03bbaea80U, 0xbde73a98be5765fdU, 0x3e386a7b3d0dc034U, 0xbd7872283e487e2fU,
  0x3e1baa3dbcb56bc0U, 0x3e5c3fcd3e05b4b1U, 0xbbe371803c2b8d00U, 0xbe4cd486be0a4966U,
  0xbde256ddbdfac3f9U, 0xbe334b393dd80dfaU, 0xbd02d1b0bcf3a420U, 0x3d70e8943d5defecU,
  0xbd074a84bdb56f3eU, 0x3d956d9e3e5211d5U, 0x3d92a302be33491aU, 0x3e1534ebbe372168U,
  0xbdda3e8cbe0db44aU, 0xbd71aa883dbf014aU, 0xbcfc37f03d193db4U, 0xbe4a6b7bbe1f29ceU,
  0xbcfb8840be186ec4U, 0x3c8a82383d83465aU, 0xbdda43483e044241U, 0x3cb2ae103e0eb13dU,
  0x3d904a4eba45e000U, 0x3e3f7fb53da7519eU, 0xbde85bfb3aa5e400U, 0xbe4005ff3de7d41aU,
  0x3e25f7fb3d551f1cU, 0x3d938ae2be513398U, 0xbbb70100bb631080U, 0xbc392640bddb15f1U,
  0xbe01fa2cbe303d8aU, 0xbc353cb0be24259fU, 0x3e50b029bd025a10U, 0xbd406d0c3e5365c3U,
  0xbdbee98cbe1a8b66U, 0xbe4798a6be5bad1bU, 0xbd3c20983d2c31d4U, 0xbdbcb362be3f3d6bU,
  0x3e574ddf3d52e904U, 0x3e5488553d3253fcU, 0xbe181d443e4a1a4fU, 0xbce28910bd7b2adcU,
  0x3ddf392e3c450d90U, 0xbe5a46383d6f5774U, 0xbd0e2c04be4046efU, 0xbe4997a53e2cc1bdU,
  0x3d5183ac3dd61d1aU, 0x3d9cacdabd87cdacU, 0x3c7395c0be1ab011U, 0xbe17c043bd26d888U,
  0x3d9b7f1a3e528e2dU, 0xbe5867333df60ef2U, 0xbd9740523c6c4910U, 0xbe4a4dafbcd285f0U,
  0x3e41903bbd9d6a92U, 0xbe0c54773e1a82a3U, 0xbb4d16003e28e28bU, 0xbe1335d03de3ba96U,
  0xbde43a3e3e40fcc3U, 0x3e1a50c73e31fe8fU, 0x3d2e0f74be1d0684U, 0xbcb355883c93d4a8U,
  0x3d432bc4bcde5638U, 0xbd9293da3d1c0314U, 0x3cd970a83e075945U, 0x3d41909c3dcbe876U,
  0x3da0a80e3e308cb1U, 0xbb3c2bc0bddbd0b5U, 0xbc895f08bd02e640U, 0xbdece05fbe164f60U,
  0x3dda842ebe33fc12U, 0xbe0473f4bc92df58U, 0x3c0bb6e03d465354U, 0xbe2632d03e2efdedU,
  0xbd8277c8bdf3861cU, 0x3e2d35e53d2b8f4cU, 0xbb808de03dd3eda6U, 0xbcaf5008be051670U,
  0xbd0677e83e275595U, 0xbe371c473d96d1beU, 0x3da967ca3e0a2bf5U, 0x3e1974ebbe2af46bU,
  0x3e0ccab5be4dae82U, 0xbe2da96d3ce19da0U, 0xbdb4ae9a3d98d79aU, 0x3e2e662b3e48b09bU,
  0xbdd7c60d3d31e054U, 0x3c7c1300be35770dU, 0x3d86a582bc476ab0U, 0xbdc26dd6be2c9468U,
  0x3cbb42d83dc3f832U, 0x3d744eac3e0f722fU, 0x3e403bb7be0b02ddU, 0x3d1019d43c25f540U,
  0x3c11cca03e04c24dU, 0xbdf81d863e58650bU, 0xbd6ab8d83d96df76U, 0xbe4a9d6a3d366364U,
  0xbe4b53a83e3b3bf3U, 0x3b8cdb203e4c9aebU, 0xbe209fa13ddec7aaU, 0x3da119fabdc556baU,
  0x3cbb932fbe3298b1U, 0x3e48bfd5bde777d7U, 0xbe8b3c07be36e7e4U, 0x3dd5a4953e280c32U,
  0x3d63f0a4bd87695cU, 0x3d92b0923dce6ce5U, 0x3d1d984dbddf7313U, 0xbc9a90383d1fdac3U,
  0xbe6f22fc3e68da7bU, 0x3de9e651bd189eacU, 0x3e1687fc3dff65d1U, 0xbe1097923e8b81f7U,
  0x3d1a65463e84facbU, 0x3e2599b9be389b4cU, 0x3e49b35ebd77f6d4U, 0x3e24cd0d3ce74937U,
  0x3be322aebd3024c1U, 0xb9d1a52cbe2da6ecU, 0x3e25bd72be5e157aU, 0xbde4495f3e24fc37U,
  0x3e00b3373cab1d9aU, 0xbe58dbfd3e22b090U, 0x3e70d16e3d8250e3U, 0xbddcb793be1edaa5U,
  0x3e3b6047be50cd2fU, 0x3e478bd2be739326U, 0xbe275464bd600864U, 0xbe79a4123e2b9d41U,
  0x3d92426cbe4dd077U, 0xbe6f22d1bb75b48eU, 0x3d83ae163e85843aU, 0xbe1dff573e34b9f3U,
  0x3c6ad0f3bda93b66U, 0x3e190d4c3e60210bU, 0x3e11ae113d7abb01U, 0x3e4d03ffbdbba40aU,
  0x3d6953f43e5ead57U, 0x3daa7fcabe888e9eU, 0xbe5ecadabdc97a9dU, 0x3b91bfd93de1e49bU,
  0xbdd8b720bc9d463fU, 0x3e439ee5be6d9770U, 0xbe18806abb3219b5U, 0xbe46ee6fbe846accU,
  0x3e3d6309be5adc74U, 0x3b93fb903e566a27U, 0x3d8c62193cdb4910U, 0x3da520923e8450cfU,
  0xbe1e0255bdd0e568U, 0x3d4b61113cc7d87dU, 0xbd8b5002be47f932U, 0xbe13298e3e367a88U,
  0x3e6baff23e0ad991U, 0x3d95cb74bd99137dU, 0xbe87fbf3bd804208U, 0xbb173626be2099d2U,
  0x3e667cbfbdda116cU, 0xbe7ec49dbd5cf2f9U, 0xbe5853743e7f2bfcU, 0x3c318f47be8c1ab0U,
  0x3e0c55fabdefebb2U, 0x3e1653b53e10ff95U, 0xbe3257193d5b4161U, 0xbe80e83d3e0ca157U,
  0x3e43eb5f3e2c4896U, 0x3d4065d9bda0f585U, 0x3e598c933e4bff6dU, 0xbd7618153dddae19U,
  0xbdcad2db3e2ac0c0U, 0x3e612e2b3e46550cU, 0xbe5d085ebe0037a2U, 0xbe897fbbbcf6f52dU,
  0x3e685468bdcdf5c2U, 0xbde6b394be76cd51U, 0xbe85ef9b3e0e8075U, 0xbde97b1f3e7d2972U,
  0x3e60f9b1bdc125b0U, 0x3e3bee093d004ae5U, 0x3d9a3cff3d7433dfU, 0x3bcd1d003d8e477bU,
  0x3d84af25be0e5a5bU, 0xbe4b326dbdb54a40U, 0xbe5bc478bab42df1U, 0xbe8b1325be4f8354U,
  0xbdc49216bc60c39cU, 0xbd80026e3df243efU, 0xbe7c41e4bdd2658dU, 0xbe270da1bda41fe1U,
  0xbe814f49be4faea1U, 0x3de9bbfebe0506d0U, 0x3dee08e9be28b273U, 0xbd12e1e03e4c5e9cU,
  0xbe28d7dcbd692691U, 0x3e28f19bbdaa1db3U, 0x3e132a3d3e56031cU, 0xbe817674be3e947eU,
  0xbcb434d0bd8a799bU, 0x3e0934eb3e50a6d8U, 0xbda85f6c3e7ca802U, 0x3dfea7fdbd75142fU,
  0x3e494d673e0a061eU, 0xbdf1a2f33dc1615cU, 0xbde03c6dbe123f32U, 0xbe89cb51bc58b444U,
  0x3c96010dbda2e99dU, 0x3dafa2863cbaed34U, 0xbe1671f43d61d471U, 0xbe17fbcb3e8038a7U,
  0x3da5c431bacab80eU, 0xbe28a3febc96e2a1U, 0x3e8a17763dcd00acU, 0x3e1138b43cdd8ac6U,
  0xbdfea40f3e61bc4cU, 0xbe392d7b3e74776bU, 0xbe25f2273e656181U, 0xbe0a04e2be03f03fU,
  0x3d8261b0be25bcf3U, 0xbe100abdbe704e98U, 0x3e49936c3dd82ff9U, 0xbdd200d2be85bcc9U,
  0x3e663a47bdac7284U, 0x3e2b3769be140586U, 0xbd8d9a63bd99ab29U, 0x3d49649abe0070b0U,
  0xbe3e1883bd4fe289U, 0x3daf61f6be30047cU, 0xbd35dd1abc4f1e1eU, 0xbe39250c3e61fb52U,
  0xbcead12b3d799158U, 0xbe1711d4be86d995U, 0xbe7c98b73e5a4333U, 0x3e714320be7c82c4U,
  0x3d75e5d8bde731b2U, 0xbe1312153dfc7781U, 0xbe6824243e5147c7U, 0x3e465ccbbd6442e6U,
  0xbd7e036a3e406694U, 0xbdd1774d3e45f792U, 0xbd229132be13ed79U, 0xbd117e053d82695bU,
  0xbe1bcd743d5d0187U, 0x3deb7f453e2ab783U, 0x3e6389373e897a60U, 0x3daea68ebcb3ee99U,
  0xbd64d57bbe4f83c6U, 0xbe1fb5e5be05eb5aU, 0xbe55f7423dc43198U, 0xbe430333be494875U,
  0x3e0c70413e36c2b6U, 0x3dc3f13cbe817cddU, 0xbe70681abcf0100fU, 0x3c286074bca9dfd2U,
  0xbe260f27be52ac41U, 0xbcc6f172bdc204abU, 0x3e821b473e5c1decU, 0x3b234b1abd69fb0eU,
  0xbe3729033e5b95fcU, 0x3e473dbabd350c54U, 0x3d6bdb39bd9b0e98U, 0x3bf294743e84b86cU,
  0x3dd81c683e527c74U, 0xbe2ef3df3e4239e5U, 0x3da8698e3e2da669U, 0x3dac3d613d682a32U,
  0x3e7b5096be7b7903U, 0x3d977ec9bdf202ddU, 0xbe7eadd43e8a44ecU, 0xbdd65d69be05ea17U,
  0x3d4bddf13e398668U, 0x3e25ae7a3e15804eU, 0x3e0c108d3e142c1eU, 0x3e0663e5be565079U,
  0x3e0fbdfb3e14f522U, 0xbd571f083c395728U, 0xbe2b6ce0be3f6be1U, 0x3e35295b3daf7cbfU,
  0xbe07984dbcf45a1aU, 0x3e7332c0be800321U, 0x3dce3e9bbe5396cdU, 0xbe56b48a3dc5c720U,
  0xbdf33c69be715521U, 0xbe0197d5be661a90U, 0xbd8a910c3da67516U, 0x3da91dcbbe7f720eU,
  0xbd4cbdc8be0b3eb1U, 0x3d2daf2e3d9e891eU, 0xbe4fa62dbe644be2U, 0xbe542e083e8617c5U,
  0x3e8b50963e582c7cU, 0xbd1207c83e508c39U, 0xbe108975bda108feU, 0xbe378ccebdbe8294U,
  0xbe18a2073c9b3273U, 0x3da88523be81efa3U, 0xbc902fbc3dbeda33U, 0x3e4eacc93d88b7fdU,
  0x3e7337403e393548U, 0xbc8c3b1ebd62deebU, 0xbe5829483ddfbca2U, 0xbe46b6d2bcbfd383U,
  0x3d0ebb9c3e79062dU, 0xbd15cfd0bbdaea3cU, 0x3e5884363e7f8580U, 0x3deb72fabd9becffU,
  0x3e70f3a2be3da2c7U, 0xbb02b9c53e4d6de0U, 0x3d6882ae3e859727U, 0x3e8586853e73f74fU,
  0x3e716078bc15bcf6U, 0x3d525a6cbc09e03bU, 0xbe3b6fa83ddbc5f8U, 0xbe803f87be14ee9aU,
  0xbe2e877ebe414e2fU, 0x3e178bcdbe6d36ddU, 0xbe37c5bdbe8237b9U, 0x3e5e8b85be4a2b1eU,
  0x3e71abdebe0ef0afU, 0x3e789f923c446f3cU, 0x3e70a12c3e88aab8U, 0xbd1a77873e562a99U,
  0xbd42bc10bc3481e6U, 0x3e4887963e4fb58fU, 0x3dde28edbd6ef17cU, 0x3e6f88003e791028U,
  0x3e4e71c63d818b5cU, 0xbe7353bbbe81e2c4U, 0x3d9e0b1abe8511b3U, 0x3dabdda5be44969eU,
  0xbe19f649be856905U, 0xbe4aee893d0471b5U, 0xbe4b83fe3e896d3aU, 0x3d08a8933e82c1e2U,
  0xbd6a2f68bde62206U, 0xbe42fe3039c57ebaU, 0x3d1559fbbd8d5c75U, 0xbcc4442abde3ac5bU,
  0xbe824aafbc452d44U, 0x3e02ad213e7fc4c4U, 0xbdb107c63e176947U, 0x3e257d4abc7d942cU,
  0x3e2a38253e746f74U, 0x3e5e7c5dbd1689e0U, 0x3e6d0137be1bc065U, 0x3e4e19babd65f176U,
  0xbd3f8ef83d197824U, 0x3db57203be84fc9dU, 0xbe092c92bd9d9715U, 0xbe8550aa3def0ea8U,
  0xbdb50777be6e8e3cU, 0xbe2cb1c0bd403b36U, 0xbe5dc0b5bdd68386U, 0xbd98f8c43e8b4b8eU,
  0xbdcbea17bcd4c25dU, 0xbe62622c3e6cb2b5U, 0x3db2adeabe719579U, 0xbde9b7a73d916978U,
  0xbe1f505c3d9318f5U, 0x3e786422be05bb0fU, 0x3e7a4e1b3df4089dU, 0x3e31dbc93daf6bedU,
  0xbc58f51cbdd35350U, 0xbc7a80b1bdcbd4fcU, 0xbdcc719ebc06c061U, 0xbdd5af753d870560U,
  0xbdf630e2be0c9fccU, 0xbdf46351ba86ffb9U, 0xbd0f9d073d9c88d8U, 0x3e137af8bdcf7ceaU,
  0x3c301457be5f219bU, 0xbe4052b7bdbc0049U, 0x3d589f0fbe879024U, 0xbe896151bd80a7b9U,
  0xbd8383373e85e6d7U, 0x3da2f69dbe7ba8a4U, 0x3c89cf3d3e1e848bU, 0xbcdfc64dbe619d0aU,
  0x3c2c9a893e10979bU, 0x3e2bb848bd9cdb61U, 0x3d63001b3da656ceU, 0xbe1a6fc4bd34014fU,
  0x3e8830eabda4750cU, 0xbe8b6cb4be51a1b2U, 0x3dfc1509be038024U, 0xbe17c3bf3e7ac8ecU,
  0x3e39bf30be88cbe9U, 0xbccaeb48bbab2d18U, 0xbe2a2c393e142233U, 0xbe638f22bdba6a63U,
  0xbd40cf173e3fea6cU, 0x3e312f27be8b2021U, 0x3e3f3ef8bcaea7c6U, 0xbe7749623e4879beU,
  0xbd563bf93e0b75e1U, 0xbdd6f3b83e60dca5U, 0xbe3ff0e5be81011bU, 0xbd883e84bd96ea6eU,
  0x3e3f095fbe31d855U, 0xbe6ba1083d0621c6U, 0xbd0e8c1ebd176d67U, 0x3e4f8208bd4f251dU,
  0xbe19dc9f3e01b1ebU, 0xbe81e11b3e7bf5b5U, 0x3d5bba193e709752U, 0x3e1cb7ee3dc23b74U,
  0x3d84d9b7bd9b8f97U, 0xbe623a8d3e04e0b3U, 0x3e09e11d3e0b5a86U, 0x3e8b6dc83c89e9aaU,
  0x3d8883183d952969U, 0xbe586f52bd388a72U, 0xbe2d44233dfc5bf0U, 0xbe3179443d6ff2cbU,
  0xbd83135ebe0776bcU, 0x3e53a8703e6ea342U, 0xbe8b93aabe4a0481U, 0xbe6e88593d1a8849U,
  0x3e7f79be3e446721U, 0xbde673aabe7c33f7U, 0x3e0d874b3e44c9b3U, 0xbce6dedc3ca5153fU,
  0xbd9be8963e1516fdU, 0x3e2842bf3cc72204U, 0xbe5e25dd3e527303U, 0x3df2c18b3e837261U,
  0x3e88e483be799f74U, 0xbe8520183dfb9512U, 0xbe71caa43d55124bU, 0x3cd3f580be04b013U,
  0x3d59080abe3aee08U, 0x3dc17da93d84b560U, 0xbe45f221bdb8bf95U, 0x3dec5ac8bdfa81e9U,
  0x3cad98893e786696U, 0xbe31a98a3e00e383U, 0xbd8c20713debe747U, 0x3e3a77d1be299eb9U,
  0xbe2c0510be589854U, 0x3e5fb80c3d3a1f06U, 0x3dffba7abe6eba15U, 0x3cd38f8dbd881308U,
  0x3e4d4decbcdfbe7eU, 0x3e890f30be6d40b8U, 0xbe4df93c3dc8daefU, 0xbca0e4893e53bbabU,
  0x3d6692ae3e28a74aU, 0x3d78a67ebe60ceedU, 0xbe34d958bdc3b372U, 0xbcbd031fbe5ccd78U,
  0x3e81eb9dbe21dcdfU, 0xbe5245323e5357a0U, 0xbe4ac06bbe80e128U, 0xbe8494763bcf337cU,
  0x3e035d7a3cae43a3U, 0xbe861285be5a61abU, 0x3c022159be8a1975U, 0xbe4781aabe25bfb0U,
  0x3e101f483e5d2876U, 0x3e52c8f6bd082544U, 0xbe793f233da377f4U, 0x3d938a3e3e893da4U,
  0x3d939579bdb05227U, 0x3e3b7efdbdac7f85U, 0xbe0836e7bd899aa0U, 0x3d09ff07bc7f1ff9U,
  0xbd19c7cebe57fa86U, 0xba3323133e298fffU, 0x3e50d3f03db898d0U, 0x3e26c5023e50d42eU,
  0x3c35a341be7be417U, 0xbe1ba3173b1db451U, 0xbe24f7633e5ca771U, 0xbe76bec63c82c604U,
  0x3e2fc715be0ec8c1U, 0x3db3b2613db0c68cU, 0xbda9d128bd8de1e6U, 0xbdb1ecbdbd11dd15U,
  0xbe645c98be5bd3deU, 0xbe3eebee3e1e1edaU, 0x3e4fb3a53e4f3e50U, 0xbe2ce64d3e43afafU,
  0x3e30b425be626ca9U, 0x3e0864043e714d86U, 0xbd6156213cf6df68U, 0x3d10b9fa3da758c9U,
  0x3c9cd7ad3e543837U, 0x3e556928be27d7ffU, 0x3e767156bcaaf88fU, 0xbe53be523dcbcbd7U,
  0x3e8a0a713e8015fcU, 0xbe2e3497be2d58abU, 0x3c993bb43e5097d8U, 0x3e49c1f0be8ac801U,
  0x3e1c1c3f3e6daec9U, 0xbe57adf03b8bd6dbU, 0xbd637c1bbe09efc6U, 0x3d3c74fa3dd13786U,
  0x3ddb70fb3e0d9a19U, 0xbe0774aebe634a39U, 0xbe2eb65e3d3d4337U, 0x3e1a8d883dc281c3U,
  0x3d96c5343e7efa1eU, 0x3db1c6a0bc869157U, 0x3e51b0cebbee3ec3U, 0xbe8165203e2dd775U,
  0xbdb3243dbdc2c8eeU, 0x3d41cd63bdb8bf1bU, 0x3e4c0f863d2ec5c2U, 0x3c5e38ef3cb8cc5aU,
  0x3ba86833bd7c0c3eU, 0x3ccef014be7b9c77U, 0x3dad8034be7e5c47U, 0xbe34577abca191d3U,
  0x3bc100cdbe62a477U, 0xbe72ee0b3dc9e436U, 0xbbacd2223d770d22U, 0x3e6eb0203d0edcbfU,
  0xbd6887563d56b7c5U, 0x3e2c55ba3e85a801U, 0xbe8bfe1e3d40f6eeU, 0xbcc4ee2cbddeb5afU,
  0xbe86d71ebe3ee65aU, 0x3d4cf2bd3d9d8663U, 0xbe01e324be762290U, 0xbaf7e6463e1e33d7U,
  0x3e534c3bbe5183e6U, 0x3d28cba63d84824bU, 0xbe254fb33e08ad72U, 0xbe880f8abd894edfU,
  0xbe0eac9d3da79bfdU, 0x3df8a0163d850bbdU, 0x3e5e4cdbbdbfb931U, 0x3d9de22fbe6a3e7eU,
  0xbd1049adbe61b718U, 0xbe5158e7be5bbf26U, 0x3db915ccbd230e92U, 0x3e01441b3d808cdcU,
  0x3d14b1903e2aeb54U, 0xbda20ee1be039e8fU, 0x3e5a9e68be5ae8a6U, 0x3e2d973b3d7a1c56U,
  0xbe3f53243e0532a8U, 0xbe61269b3deba634U, 0xbe2049d4be027cd6U, 0x3e3783ee3e46f6bfU,
  0xbe4558f23e56085aU, 0xbbce8ad13e752594U, 0xbd7f6df73d1a784bU, 0x3cf6ed163e86b79eU,
  0xbd35e18d3e225edaU, 0xbe2be7e5bdbebcebU, 0xbe7a206ebca5cde8U, 0xbcbf930cbe853b44U,
  0xbe0982a43ce0dff9U, 0x3e133735be6688c9U, 0xbe500ac1be2922d5U, 0x3e1c68963e004d35U,
  0x3d606b9f3e0a39c7U, 0x3d4d077b3c94f330U, 0xbe72cd313e812193U, 0x3e0112af3e6e6092U,
  0x3d53cf1dbe88abe3U, 0xbc4e17e0be5d994fU, 0x3e5aef5f3e2856bbU, 0x3cce9e7f3e18cea6U,
  0xbde95074be7452b8U, 0x3e49373abe7d7cf3U, 0x3e7301de3e8b8631U, 0x3e4ccb203ce7d165U,
  0xbe3b7209be8807c5U, 0xbdfe31be3d4cc843U, 0xbe1d8a083e17e3f6U, 0x3e826bef3e430782U,
  0xbd2408d2be4f4f3cU, 0x3e8122b33cb988d1U, 0xbe30ffefbe251286U, 0x3c7de761be6e4e41U,
  0xbdff8dbfbe87b73fU, 0xbe8adb3a3e43339dU, 0xbdc070d33caabd66U, 0x3e112a5abc21de09U,
  0x3e309f3d3e828f09U, 0x3db0b0dbbe85df75U, 0xbe3bd158bcfa6c2cU, 0xbe0afda13e81f4a4U,
  0xbe316af5be166415U, 0xbd188dd63dd62834U, 0xbdb8b5f8bdc2eea4U, 0xbe608021be483b52U,
  0x3e6f92abbe88fb1fU, 0x3e3913a6bcee33a4U, 0x3df0cd2fbda6dd8bU, 0xbcc932783da24d63U,
  0x3e567abf3e023920U, 0xbe1294b33e209d7cU, 0x3e15564f3e8022bcU, 0xbcd2bf37be7daf14U,
  0xbe5adc823e299d8fU, 0x3d90a349be71f6f9U, 0xbe2437453dfc71d5U, 0x3e1205783dbc3ce1U,
  0xbdc7b5c73e38d8a6U, 0xbe8b3f1c3aea90fbU, 0x3e18f6e73e38758bU, 0x3d64af3c3d875936U,
  0xbda1f2823e4e64eeU, 0x3d31e4d43de71a90U, 0x3e25e4a33e6416adU, 0xbe497cd3bdd173eaU,
  0xbcc31f273e064371U, 0xbd7069b73e83e31bU, 0xbe38ae5b3e01d181U, 0x3e504c183e350887U,
  0xbd667ae1be443434U, 0x3e7488fc3ccf8a11U, 0xbca1a810bdd0d157U, 0x3dd13fc0bd93a2a3U,
  0x3e7b41dc3e1c3117U, 0x3dea900b3d5e518cU, 0x3e0918943da7ab2bU, 0x3de727c3bc77ff43U,
  0x3e24cb21be156739U, 0x3e6be0fcbcbbaa9cU, 0xbdb270cabe411dfdU, 0x3e10b4cbbd5b3f01U,
  0x3e494fb9bdbafc7aU, 0xbe63523c3e360269U, 0x3e69d5733e6f775aU, 0xbd5d1e84be1225b0U,
  0x3e5c94993d3911f1U, 0xbd882454be3d018cU, 0x3da14a7c3e4b780aU, 0xbe32905a3dd824d7U,
  0xbe52b1953b9a86b9U, 0xbd36ad6fbe21a778U, 0x3d29b4a8bbc98bb5U, 0xbe1bf75a3e15ec80U,
  0x3e1e613bbe41e5a3U, 0xbc82e63fbe5685f8U, 0x3e5f42513e00fb06U, 0xbe58bc533ca8fd5fU,
  0xbdbd99bc3e547ef6U, 0xbe48d14dbdb924deU, 0x3c6a38463de149e3U, 0xbde32c9dbe0dcedaU,
  0xbc72c2afbe286157U, 0xbdaadefabe25422eU, 0xbc5352f53e6d317dU, 0xbe7a92273e472374U,
  0xbe42927d3e0edf17U, 0x3e3d1a71be4e7a7bU, 0x3d8af4103d6bc7e3U, 0xbd280ffe3e2b199aU,
